{
  "version": "1.0",
  "truncation": null,
  "padding": null,
  "added_tokens": [],
  "normalizer": null,
  "pre_tokenizer": {
    "type": "ByteLevel",
    "add_prefix_space": false,
    "trim_offsets": true,
    "use_regex": true
  },
  "post_processor": null,
  "decoder": {
    "type": "ByteLevel",
    "add_prefix_space": true,
    "trim_offsets": true,
    "use_regex": true
  },
  "model": {
    "type": "BPE",
    "dropout": null,
    "unk_token": null,
    "continuing_subword_prefix": null,
    "end_of_word_suffix": null,
    "fuse_unk": false,
    "byte_fallback": false,
    "ignore_merges": false,
    "vocab": {
      "!": 0,
      "\"": 1,
      "#": 2,
      "$": 3,
      "%": 4,
      "&": 5,
      "'": 6,
      "(": 7,
      ")": 8,
      "*": 9,
      "+": 10,
      ",": 11,
      "-": 12,
      ".": 13,
      "/": 14,
      "0": 15,
      "1": 16,
      "2": 17,
      "3": 18,
      "4": 19,
      "5": 20,
      "6": 21,
      "7": 22,
      "8": 23,
      "9": 24,
      ":": 25,
      ";": 26,
      "<": 27,
      "=": 28,
      ">": 29,
      "?": 30,
      "@": 31,
      "A": 32,
      "B": 33,
      "C": 34,
      "D": 35,
      "E": 36,
      "F": 37,
      "G": 38,
      "H": 39,
      "I": 40,
      "J": 41,
      "K": 42,
      "L": 43,
      "M": 44,
      "N": 45,
      "O": 46,
      "P": 47,
      "Q": 48,
      "R": 49,
      "S": 50,
      "T": 51,
      "U": 52,
      "V": 53,
      "W": 54,
      "X": 55,
      "Y": 56,
      "Z": 57,
      "[": 58,
      "\\": 59,
      "]": 60,
      "^": 61,
      "_": 62,
      "`": 63,
      "a": 64,
      "b": 65,
      "c": 66,
      "d": 67,
      "e": 68,
      "f": 69,
      "g": 70,
      "h": 71,
      "i": 72,
      "j": 73,
      "k": 74,
      "l": 75,
      "m": 76,
      "n": 77,
      "o": 78,
      "p": 79,
      "q": 80,
      "r": 81,
      "s": 82,
      "t": 83,
      "u": 84,
      "v": 85,
      "w": 86,
      "x": 87,
      "y": 88,
      "z": 89,
      "{": 90,
      "|": 91,
      "}": 92,
      "~": 93,
      "¡": 94,
      "¢": 95,
      "£": 96,
      "¤": 97,
      "¥": 98,
      "¦": 99,
      "§": 100,
      "¨": 101,
      "©": 102,
      "ª": 103,
      "«": 104,
      "¬": 105,
      "®": 106,
      "¯": 107,
      "°": 108,
      "±": 109,
      "²": 110,
      "³": 111,
      "´": 112,
      "µ": 113,
      "¶": 114,
      "·": 115,
      "¸": 116,
      "¹": 117,
      "º": 118,
      "»": 119,
      "¼": 120,
      "½": 121,
      "¾": 122,
      "¿": 123,
      "À": 124,
      "Á": 125,
      "Â": 126,
      "Ã": 127,
      "Ä": 128,
      "Å": 129,
      "Æ": 130,
      "Ç": 131,
      "È": 132,
      "É": 133,
      "Ê": 134,
      "Ë": 135,
      "Ì": 136,
      "Í": 137,
      "Î": 138,
      "Ï": 139,
      "Ð": 140,
      "Ñ": 141,
      "Ò": 142,
      "Ó": 143,
      "Ô": 144,
      "Õ": 145,
      "Ö": 146,
      "×": 147,
      "Ø": 148,
      "Ù": 149,
      "Ú": 150,
      "Û": 151,
      "Ü": 152,
      "Ý": 153,
      "Þ": 154,
      "ß": 155,
      "à": 156,
      "á": 157,
      "â": 158,
      "ã": 159,
      "ä": 160,
      "å": 161,
      "æ": 162,
      "ç": 163,
      "è": 164,
      "é": 165,
      "ê": 166,
      "ë": 167,
      "ì": 168,
      "í": 169,
      "î": 170,
      "ï": 171,
      "ð": 172,
      "ñ": 173,
      "ò": 174,
      "ó": 175,
      "ô": 176,
      "õ": 177,
      "ö": 178,
      "÷": 179,
      "ø": 180,
      "ù": 181,
      "ú": 182,
      "û": 183,
      "ü": 184,
      "ý": 185,
      "þ": 186,
      "ÿ": 187,
      "Ā": 188,
      "ā": 189,
      "Ă": 190,
      "ă": 191,
      "Ą": 192,
      "ą": 193,
      "Ć": 194,
      "ć": 195,
      "Ĉ": 196,
      "ĉ": 197,
      "Ċ": 198,
      "ċ": 199,
      "Č": 200,
      "č": 201,
      "Ď": 202,
      "ď": 203,
      "Đ": 204,
      "đ": 205,
      "Ē": 206,
      "ē": 207,
      "Ĕ": 208,
      "ĕ": 209,
      "Ė": 210,
      "ė": 211,
      "Ę": 212,
      "ę": 213,
      "Ě": 214,
      "ě": 215,
      "Ĝ": 216,
      "ĝ": 217,
      "Ğ": 218,
      "ğ": 219,
      "Ġ": 220,
      "ġ": 221,
      "Ģ": 222,
      "ģ": 223,
      "Ĥ": 224,
      "ĥ": 225,
      "Ħ": 226,
      "ħ": 227,
      "Ĩ": 228,
      "ĩ": 229,
      "Ī": 230,
      "ī": 231,
      "Ĭ": 232,
      "ĭ": 233,
      "Į": 234,
      "į": 235,
      "İ": 236,
      "ı": 237,
      "Ĳ": 238,
      "ĳ": 239,
      "Ĵ": 240,
      "ĵ": 241,
      "Ķ": 242,
      "ķ": 243,
      "ĸ": 244,
      "Ĺ": 245,
      "ĺ": 246,
      "Ļ": 247,
      "ļ": 248,
      "Ľ": 249,
      "ľ": 250,
      "Ŀ": 251,
      "ŀ": 252,
      "Ł": 253,
      "ł": 254,
      "Ń": 255,
      "er": 256,
      "en": 257,
      "Ġs": 258,
      "et": 259,
      "Ã¥": 260,
      "Ġd": 261,
      "Ġf": 262,
      "Ġo": 263,
      "an": 264,
      "or": 265,
      "in": 266,
      "Ġm": 267,
      "el": 268,
      "Ġh": 269,
      "Ġt": 270,
      "ar": 271,
      "il": 272,
      "st": 273,
      "Ã¸": 274,
      "Ġb": 275,
      "Ġi": 276,
      "Ġa": 277,
      "Ġv": 278,
      "Ġog": 279,
      "re": 280,
      "Ġk": 281,
      "om": 282,
      "Ġp": 283,
      "ed": 284,
      "li": 285,
      "le": 286,
      "sk": 287,
      "Ġfor": 288,
      "on": 289,
      "te": 290,
      "ing": 291,
      "Ġg": 292,
      "eg": 293,
      "Ġtil": 294,
      "Ġer": 295,
      "kk": 296,
      "Ġen": 297,
      "Ġn": 298,
      "ra": 299,
      "tt": 300,
      "ig": 301,
      "al": 302,
      "de": 303,
      "ĠÃ¥": 304,
      "Ġav": 305,
      "Ġsom": 306,
      "un": 307,
      "ĠpÃ¥": 308,
      "Ġdet": 309,
      "es": 310,
      "ter": 311,
      "is": 312,
      "Ġl": 313,
      "ene": 314,
      "Ġmed": 315,
      "id": 316,
      "ver": 317,
      "Ã¸r": 318,
      "ler": 319,
      "Ġu": 320,
      "as": 321,
      "pp": 322,
      "ne": 323,
      "Ġst": 324,
      "am": 325,
      "kt": 326,
      "ĠD": 327,
      "ag": 328,
      "ĠS": 329,
      "ol": 330,
      "and": 331,
      "ri": 332,
      "at": 333,
      "Ġin": 334,
      "Ġhar": 335,
      "Ġsk": 336,
      "lig": 337,
      "Ġde": 338,
      "Ã¦": 339,
      "Ġet": 340,
      "Ġj": 341,
      "se": 342,
      "Ġat": 343,
      "kke": 344,
      "ro": 345,
      "Ġden": 346,
      "ĠH": 347,
      "der": 348,
      "Ġut": 349,
      "Ġ1": 350,
      "ste": 351,
      "jon": 352,
      "ang": 353,
      "Ã¥r": 354,
      "ĠM": 355,
      "Ġom": 356,
      "Ġikke": 357,
      "ent": 358,
      "ke": 359,
      "ru": 360,
      "Ġre": 361,
      "ere": 362,
      "isk": 363,
      "ning": 364,
      "it": 365,
      "ur": 366,
      "Ġvar": 367,
      "Ġfra": 368,
      "ĠA": 369,
      "ot": 370,
      "ĠB": 371,
      "Ġvi": 372,
      "ett": 373,
      "Ġopp": 374,
      "Ġkan": 375,
      "Ġr": 376,
      "Ġdu": 377,
      "ĠT": 378,
      "ĠN": 379,
      "Ã¦r": 380,
      "Ġal": 381,
      "ens": 382,
      "us": 383,
      "Ġjeg": 384,
      "ul": 385,
      "ad": 386,
      "ks": 387,
      "ĠI": 388,
      "Ġgj": 389,
      "for": 390,
      "ĠF": 391,
      "Ġ(": 392,
      "est": 393,
      "ende": 394,
      "ĠE": 395,
      "eller": 396,
      "em": 397,
      "Ġ2": 398,
      "Ġmen": 399,
      "mer": 400,
      "Ġinn": 401,
      "ge": 402,
      "ser": 403,
      "het": 404,
      "dig": 405,
      "00": 406,
      "elig": 407,
      "Ġli": 408,
      "att": 409,
      "ok": 410,
      "ikk": 411,
      "Ġsp": 412,
      "ĠK": 413,
      "ik": 414,
      "ĠP": 415,
      "Ġe": 416,
      "âĢ": 417,
      "ell": 418,
      "Ġble": 419,
      "iv": 420,
      "av": 421,
      "ak": 422,
      "ann": 423,
      "od": 424,
      "ap": 425,
      "sen": 426,
      "ĠL": 427,
      "Ġhan": 428,
      "ĠV": 429,
      "Ġkom": 430,
      "ĠsÃ¥": 431,
      "Ġsam": 432,
      "ĠDet": 433,
      "Ġhv": 434,
      "asjon": 435,
      "ger": 436,
      "sÃ¥": 437,
      "ĠG": 438,
      "Ġbli": 439,
      "ist": 440,
      "art": 441,
      "Ġeller": 442,
      "ĠJ": 443,
      "ĠO": 444,
      "ord": 445,
      "Ġover": 446,
      "ĠC": 447,
      "Ġvil": 448,
      "og": 449,
      "Ġbe": 450,
      "itt": 451,
      "ĠR": 452,
      "ant": 453,
      "ir": 454,
      "Ã¸y": 455,
      "Ġno": 456,
      "enn": 457,
      "ss": 458,
      "Ġseg": 459,
      "me": 460,
      "ĠmÃ¥": 461,
      "ort": 462,
      "ker": 463,
      "elt": 464,
      "Ġun": 465,
      "ĠogsÃ¥": 466,
      "Ã¦re": 467,
      "yn": 468,
      "ske": 469,
      "je": 470,
      "ut": 471,
      "be": 472,
      "os": 473,
      "men": 474,
      "Ġder": 475,
      "Ġkj": 476,
      "inn": 477,
      "Ġkon": 478,
      "ĠfÃ¸r": 479,
      "sp": 480,
      "ier": 481,
      "ft": 482,
      "Ġpro": 483,
      "yr": 484,
      "ff": 485,
      "ling": 486,
      "Ġny": 487,
      "ud": 488,
      "Ġved": 489,
      "unn": 490,
      "Ġand": 491,
      "Ġskal": 492,
      "iske": 493,
      "else": 494,
      "Ġle": 495,
      "Ġmin": 496,
      "ert": 497,
      "old": 498,
      "Ġetter": 499,
      "are": 500,
      "Ã¸n": 501,
      "..": 502,
      "gg": 503,
      "he": 504,
      "ve": 505,
      "all": 506,
      "ĠÃ¥r": 507,
      "Ġbru": 508,
      "sl": 509,
      "um": 510,
      "elv": 511,
      "Ġtr": 512,
      "per": 513,
      "eng": 514,
      "âĢĵ": 515,
      "ov": 516,
      "ob": 517,
      "und": 518,
      "ic": 519,
      "jer": 520,
      "Ġtid": 521,
      "||": 522,
      "Ġdag": 523,
      "Ġsin": 524,
      "ĠvÃ¦re": 525,
      "ly": 526,
      "ans": 527,
      "Ġ19": 528,
      "Ġbl": 529,
      "Ġto": 530,
      "skap": 531,
      "ingen": 532,
      "ele": 533,
      "Ġkl": 534,
      "ast": 535,
      "Ã¸l": 536,
      "ers": 537,
      "Ġ-": 538,
      "Ġse": 539,
      "Ġdette": 540,
      "Ġmer": 541,
      "ia": 542,
      "adde": 543,
      "Ġman": 544,
      "Ġkun": 545,
      "Ã¸re": 546,
      "gen": 547,
      "Ġunder": 548,
      "vis": 549,
      "ĠW": 550,
      "Ġhadde": 551,
      "akt": 552,
      "Ġandre": 553,
      "diger": 554,
      "lige": 555,
      "rÃ¥": 556,
      "ĠfÃ¥": 557,
      "Ġar": 558,
      "var": 559,
      "ab": 560,
      "Ġalle": 561,
      "ange": 562,
      "Ġc": 563,
      "ĠU": 564,
      "den": 565,
      "rem": 566,
      "gj": 567,
      "ass": 568,
      "Ġsl": 569,
      "del": 570,
      "ie": 571,
      "tter": 572,
      "Ã¸k": 573,
      "ry": 574,
      "Ġmot": 575,
      "tid": 576,
      "Ġblir": 577,
      "im": 578,
      "dag": 579,
      "Â»": 580,
      "ien": 581,
      "Ġpl": 582,
      "ill": 583,
      "ost": 584,
      "ĠSt": 585,
      "Â«": 586,
      "Ġmeg": 587,
      "Ġhj": 588,
      "Ã¦rt": 589,
      "ber": 590,
      "Ġha": 591,
      "pe": 592,
      "Ġda": 593,
      "ale": 594,
      "hold": 595,
      "01": 596,
      "alt": 597,
      "Ġby": 598,
      "Ġgod": 599,
      "ch": 600,
      "Ġselv": 601,
      "ion": 602,
      "lit": 603,
      "lere": 604,
      "Ġstor": 605,
      "beid": 606,
      "Ġdenne": 607,
      "Ã¸d": 608,
      "kl": 609,
      "Ġver": 610,
      "Ġ3": 611,
      "elle": 612,
      "ket": 613,
      "tte": 614,
      "sker": 615,
      "Ġvel": 616,
      "Ġnoen": 617,
      "iser": 618,
      "ner": 619,
      "sm": 620,
      "ind": 621,
      "nd": 622,
      "ĠÂ«": 623,
      "Ġnoe": 624,
      "net": 625,
      "ret": 626,
      "Ġeg": 627,
      "lik": 628,
      "ek": 629,
      "Ġher": 630,
      "Ġgr": 631,
      "met": 632,
      "Ġan": 633,
      "opp": 634,
      "red": 635,
      "Ġsi": 636,
      "ede": 637,
      "eder": 638,
      "ster": 639,
      "eld": 640,
      "ĠNor": 641,
      "ater": 642,
      "ĠnÃ¥": 643,
      "ine": 644,
      "iden": 645,
      "Ġof": 646,
      "ilde": 647,
      "Ġmange": 648,
      "Ġreg": 649,
      "ktig": 650,
      "Det": 651,
      "ĠJeg": 652,
      "Ġann": 653,
      "land": 654,
      "Ġor": 655,
      "itet": 656,
      "Ġfort": 657,
      "Ġdel": 658,
      "Ġbare": 659,
      "yl": 660,
      "ring": 661,
      "ark": 662,
      "Ġlag": 663,
      "ĠnÃ¥r": 664,
      "ksjon": 665,
      "Ã¸p": 666,
      "ĠâĢĵ": 667,
      "Ġmy": 668,
      "Ġenn": 669,
      "ten": 670,
      "ennom": 671,
      "res": 672,
      "Ġdeg": 673,
      "ub": 674,
      "Ġfrem": 675,
      "Ġtilb": 676,
      "sten": 677,
      "op": 678,
      "Ġdem": 679,
      "legg": 680,
      "ron": 681,
      "ĠDe": 682,
      "ĠDen": 683,
      "Ġbeg": 684,
      "ram": 685,
      "ac": 686,
      "ess": 687,
      "Ġhvor": 688,
      "Ġfin": 689,
      "akk": 690,
      "rÃ¸": 691,
      "Ġser": 692,
      "det": 693,
      "Ġgang": 694,
      "Ġkv": 695,
      "Ġek": 696,
      "Ġlitt": 697,
      "Ġhver": 698,
      "rat": 699,
      "ĠVi": 700,
      "ull": 701,
      "ille": 702,
      "vik": 703,
      "Ġbet": 704,
      "isse": 705,
      "Ġland": 706,
      "Ġgjennom": 707,
      "Ġ200": 708,
      "form": 709,
      "ult": 710,
      "utt": 711,
      "Ġbil": 712,
      "ĠFor": 713,
      "mp": 714,
      "Ġnor": 715,
      "alg": 716,
      "ven": 717,
      "Ġsammen": 718,
      "Ġbar": 719,
      "Ġsy": 720,
      "ĠfÃ¸rste": 721,
      "Ġ\"": 722,
      "ĠfÃ¥r": 723,
      "vet": 724,
      "lem": 725,
      "Ġw": 726,
      "ellom": 727,
      "ĠvÃ¦rt": 728,
      "ĠIn": 729,
      "Ġ201": 730,
      "ow": 731,
      "Ġsm": 732,
      "Ġflere": 733,
      "Ġned": 734,
      "Ġkunne": 735,
      "etter": 736,
      "pl": 737,
      ").": 738,
      "ninger": 739,
      "iver": 740,
      "Ġoss": 741,
      "Ġra": 742,
      "ken": 743,
      "Ġmye": 744,
      "enger": 745,
      "Ġmu": 746,
      "ningen": 747,
      "inner": 748,
      "ĠÃ": 749,
      "ali": 750,
      "gang": 751,
      "els": 752,
      "ĠbÃ¥": 753,
      "du": 754,
      "ets": 755,
      "este": 756,
      "fÃ¸r": 757,
      "ĠEn": 758,
      "Ġtre": 759,
      "Ġ|": 760,
      "Ġalt": 761,
      "eb": 762,
      "Ġuten": 763,
      "Ġ4": 764,
      "Ġmellom": 765,
      "ire": 766,
      "ulle": 767,
      "Ġsier": 768,
      "som": 769,
      "amp": 770,
      "ĠhÃ¸y": 771,
      "Ġkilde": 772,
      "ĠHer": 773,
      "Ġinter": 774,
      "Ġslik": 775,
      "let": 776,
      "ĠÃ¸": 777,
      "Ġkommer": 778,
      "rediger": 779,
      "Ġ18": 780,
      "kj": 781,
      "ige": 782,
      "Ġkont": 783,
      "Ġthe": 784,
      "âĢĿ": 785,
      "end": 786,
      "Ġly": 787,
      "Ġnett": 788,
      "Ġmil": 789,
      "lag": 790,
      "ĠHan": 791,
      "ran": 792,
      "Ġlang": 793,
      "Ġrediger": 794,
      "Ġsv": 795,
      "ake": 796,
      "Ġpo": 797,
      "erson": 798,
      "elsen": 799,
      "Ġrett": 800,
      "Ġnye": 801,
      "ode": 802,
      "ĠMen": 803,
      "Ġhun": 804,
      "ĠgÃ¥r": 805,
      "Ġbeste": 806,
      "Ġ5": 807,
      "Ġlig": 808,
      "Ġfikk": 809,
      "ris": 810,
      "fer": 811,
      "Ġta": 812,
      "ate": 813,
      "inger": 814,
      "olk": 815,
      "erne": 816,
      "heten": 817,
      "ekt": 818,
      "if": 819,
      "Ġsn": 820,
      "elige": 821,
      "ug": 822,
      "kker": 823,
      "Ġbruk": 824,
      "Ġend": 825,
      "Ġhelt": 826,
      "ĠfÃ¸l": 827,
      "ip": 828,
      "ĠstÃ¸r": 829,
      "ĠbÃ¥de": 830,
      "Ġhele": 831,
      "ĠvÃ¥r": 832,
      "Ġsiden": 833,
      "ĠDette": 834,
      "riv": 835,
      "Ġarbeid": 836,
      "Ġgrunn": 837,
      "illing": 838,
      "ings": 839,
      "ette": 840,
      "ay": 841,
      "ĠNorge": 842,
      "rer": 843,
      "Ġhel": 844,
      "ĠAl": 845,
      "Ġperson": 846,
      "Ġrom": 847,
      "atur": 848,
      "ard": 849,
      "enter": 850,
      "istor": 851,
      "ĠgjÃ¸re": 852,
      "Ġgodt": 853,
      "elen": 854,
      "iet": 855,
      "ĠÃ¸n": 856,
      "Ġvan": 857,
      "Ġmulig": 858,
      "isjon": 859,
      "Ġsyn": 860,
      "by": 861,
      "rist": 862,
      "di": 863,
      "Ġforsk": 864,
      "otell": 865,
      "ren": 866,
      "Ġskulle": 867,
      "Ġdisse": 868,
      "rett": 869,
      "Ġkomm": 870,
      "ĠgÃ¥": 871,
      "jene": 872,
      "Ġenk": 873,
      "Ġsj": 874,
      "Ġhans": 875,
      "ust": 876,
      "dom": 877,
      "ib": 878,
      "Ġdin": 879,
      "Ġty": 880,
      "ev": 881,
      "Ã¸s": 882,
      "ĠOg": 883,
      "Ġper": 884,
      "Ġsitt": 885,
      "si": 886,
      "Ġbest": 887,
      "Ġforb": 888,
      "over": 889,
      "ĠvÃ¥": 890,
      "Ġvis": 891,
      "hand": 892,
      "Ġvir": 893,
      "edet": 894,
      "Ġhva": 895,
      "oll": 896,
      "kom": 897,
      "ĠgjÃ¸r": 898,
      "aler": 899,
      "elser": 900,
      "Ã¥l": 901,
      "rig": 902,
      "Ġrund": 903,
      "Ġstore": 904,
      "Ġgl": 905,
      "Ġbed": 906,
      "Ġigj": 907,
      "ive": 908,
      "app": 909,
      "Ġblitt": 910,
      "pen": 911,
      "Ġfly": 912,
      "Ġhjem": 913,
      "formasjon": 914,
      "ordan": 915,
      "Ġannet": 916,
      "),": 917,
      "ĠnÃ¦r": 918,
      "Ġviktig": 919,
      "Ġhjel": 920,
      "tem": 921,
      "Ġri": 922,
      "ĠSk": 923,
      "Ġve": 924,
      "like": 925,
      "org": 926,
      "Ġall": 927,
      "Ġhen": 928,
      "heter": 929,
      "olog": 930,
      "Ġsine": 931,
      "ont": 932,
      "19": 933,
      "ĠAn": 934,
      "sje": 935,
      "Ġfl": 936,
      "Ġrundt": 937,
      "eter": 938,
      "...": 939,
      "Ġigjen": 940,
      "kter": 941,
      "anske": 942,
      "Ġfors": 943,
      "hol": 944,
      "Ġy": 945,
      "ener": 946,
      "rom": 947,
      "ott": 948,
      "kte": 949,
      "Ġpolit": 950,
      "ask": 951,
      "atte": 952,
      "iller": 953,
      "avn": 954,
      "ligere": 955,
      "ong": 956,
      "les": 957,
      "ĠhÃ¥": 958,
      "Ġmest": 959,
      "ĠCh": 960,
      "esi": 961,
      "dre": 962,
      "Ġ6": 963,
      "Ġmenne": 964,
      "Ġsamme": 965,
      "rift": 966,
      "Ġskj": 967,
      "Ġfer": 968,
      "Ġlike": 969,
      "Ã¸nn": 970,
      "kket": 971,
      "pro": 972,
      "rep": 973,
      "rik": 974,
      "Ġmor": 975,
      "Ġjo": 976,
      "Vi": 977,
      "Ġfar": 978,
      "atter": 979,
      "rit": 980,
      "Ġutvik": 981,
      "Ġdere": 982,
      "Ġnok": 983,
      "oner": 984,
      "rev": 985,
      "Ġgir": 986,
      "sb": 987,
      "Ġgi": 988,
      "alen": 989,
      "Ġveldig": 990,
      "ĠmÃ¸": 991,
      "arbeid": 992,
      "rav": 993,
      "sf": 994,
      "Ġpar": 995,
      "Ġjob": 996,
      "sjon": 997,
      "Ġtro": 998,
      "Ġblant": 999,
      "rad": 1000,
      "sert": 1001,
      "Ġbarn": 1002,
      "sy": 1003,
      "Ġhos": 1004,
      "Ġtilbake": 1005,
      "Ġform": 1006,
      "oved": 1007,
      "Ġsen": 1008,
      "ktet": 1009,
      "ytt": 1010,
      "Ġans": 1011,
      "Ġ7": 1012,
      "Ġti": 1013,
      "gram": 1014,
      "Ġfil": 1015,
      "200": 1016,
      "ian": 1017,
      "Den": 1018,
      "For": 1019,
      "gge": 1020,
      "10": 1021,
      "Ġpre": 1022,
      "Ġla": 1023,
      "rupp": 1024,
      "ente": 1025,
      "semp": 1026,
      "allet": 1027,
      "ĠAr": 1028,
      "ma": 1029,
      "Ġ15": 1030,
      "fÃ¸l": 1031,
      "Ġhotell": 1032,
      "Ġsiste": 1033,
      "jÃ¸": 1034,
      "satt": 1035,
      "Ġbes": 1036,
      "Ġakt": 1037,
      "Ġvid": 1038,
      "ester": 1039,
      "Jeg": 1040,
      "Ġbegyn": 1041,
      "Ġligger": 1042,
      "entlig": 1043,
      "000": 1044,
      "no": 1045,
      "set": 1046,
      "ister": 1047,
      "pt": 1048,
      "Ġ8": 1049,
      "nes": 1050,
      "iner": 1051,
      "skje": 1052,
      "stand": 1053,
      "Ã¸m": 1054,
      "Ġinformasjon": 1055,
      "va": 1056,
      "Ġville": 1057,
      "yd": 1058,
      "Ġinne": 1059,
      "Ġfri": 1060,
      "Ġord": 1061,
      "Ġskri": 1062,
      "Ġnord": 1063,
      "Ġev": 1064,
      "ĠMar": 1065,
      "Ġbruker": 1066,
      "Ġderes": 1067,
      "sh": 1068,
      "Ġsa": 1069,
      "ikker": 1070,
      "Ġhvordan": 1071,
      "Ġmid": 1072,
      "ĠDu": 1073,
      "slo": 1074,
      "Ġeksemp": 1075,
      "Ġsu": 1076,
      "Ġhand": 1077,
      "ĠsÃ¸": 1078,
      "med": 1079,
      "ole": 1080,
      "Ġgam": 1081,
      "tern": 1082,
      "ilt": 1083,
      "jel": 1084,
      "Ġ10": 1085,
      "Ġeks": 1086,
      "Ġ9": 1087,
      "uro": 1088,
      "ade": 1089,
      "raf": 1090,
      "Ġverd": 1091,
      "Ġingen": 1092,
      "Ġgikk": 1093,
      "Ġant": 1094,
      "oc": 1095,
      "off": 1096,
      "En": 1097,
      "Ġsel": 1098,
      "Ġro": 1099,
      "amil": 1100,
      "ĠThe": 1101,
      "Ġtillegg": 1102,
      "ĠBer": 1103,
      "oder": 1104,
      "oen": 1105,
      "ĠkjÃ¸": 1106,
      "asjoner": 1107,
      "Ġ0": 1108,
      "bru": 1109,
      "ĠUn": 1110,
      "Ġspesi": 1111,
      "ĠÃ¸nsker": 1112,
      "Ġstat": 1113,
      "Ġnorske": 1114,
      "com": 1115,
      "sel": 1116,
      "uder": 1117,
      "ide": 1118,
      "Ġfram": 1119,
      "ation": 1120,
      "ct": 1121,
      "nings": 1122,
      "Ġfun": 1123,
      "Ġfinne": 1124,
      "ĠfÃ¥tt": 1125,
      "ĠÃ¸k": 1126,
      "Ġtar": 1127,
      "Ġegen": 1128,
      "ĊĊ": 1129,
      "Ġham": 1130,
      "ativ": 1131,
      "Ġkli": 1132,
      "Ġ:": 1133,
      "ĠomrÃ¥": 1134,
      "Ġten": 1135,
      "Ġbr": 1136,
      "In": 1137,
      "min": 1138,
      "jell": 1139,
      "Ġ17": 1140,
      "ce": 1141,
      "tere": 1142,
      "Ã¸rer": 1143,
      "mel": 1144,
      "bo": 1145,
      "Ġhoved": 1146,
      "Ġkommun": 1147,
      "Ġim": 1148,
      "ĠSp": 1149,
      "get": 1150,
      "Ġru": 1151,
      "Ġmens": 1152,
      "ys": 1153,
      "tes": 1154,
      "asse": 1155,
      "oh": 1156,
      "Ġ16": 1157,
      "ars": 1158,
      "Ġfolk": 1159,
      "Ġhistor": 1160,
      "Ġtek": 1161,
      "jÃ¸r": 1162,
      "Ġred": 1163,
      "Ġsent": 1164,
      "Ġkn": 1165,
      "fter": 1166,
      "asser": 1167,
      "Ġdes": 1168,
      "Ġprodu": 1169,
      "ou": 1170,
      "Ġhol": 1171,
      "Ġfant": 1172,
      "ĠvÃ¥re": 1173,
      "Ġbak": 1174,
      "Ġinnen": 1175,
      "St": 1176,
      "Ġverden": 1177,
      "led": 1178,
      "ĠOslo": 1179,
      "innes": 1180,
      "Ġbedre": 1181,
      "au": 1182,
      "Ġoff": 1183,
      "entet": 1184,
      "ultur": 1185,
      "Ġfull": 1186,
      "Ġnytt": 1187,
      "nt": 1188,
      "na": 1189,
      "Ġlu": 1190,
      "Ġlen": 1191,
      "rakt": 1192,
      "Ġbesk": 1193,
      "eil": 1194,
      "usjon": 1195,
      "sdag": 1196,
      "hus": 1197,
      "Ġplan": 1198,
      "funn": 1199,
      "gr": 1200,
      "ĠDa": 1201,
      "gi": 1202,
      "Ġdat": 1203,
      "lev": 1204,
      "Ġditt": 1205,
      "Ġvalg": 1206,
      "Ġart": 1207,
      "Ġliv": 1208,
      "ER": 1209,
      "Ġtatt": 1210,
      "asjonen": 1211,
      "Ġkron": 1212,
      "Ġmilli": 1213,
      "kken": 1214,
      "ĠÃ¸y": 1215,
      "ĠstÃ¥r": 1216,
      "Ġaller": 1217,
      "Ġting": 1218,
      "anger": 1219,
      "Ġsamt": 1220,
      "Ġte": 1221,
      "Ġbruke": 1222,
      "far": 1223,
      "Ġel": 1224,
      "ave": 1225,
      "Ġpart": 1226,
      "slag": 1227,
      "Ã¸st": 1228,
      "irk": 1229,
      "vel": 1230,
      "iteter": 1231,
      "Ġlov": 1232,
      "dene": 1233,
      "son": 1234,
      "ĠspÃ¸r": 1235,
      "olen": 1236,
      "styr": 1237,
      "Ġad": 1238,
      "Ġkomme": 1239,
      "rÃ¸m": 1240,
      "Ġtur": 1241,
      "Ġgode": 1242,
      "Ġ12": 1243,
      "Ġsett": 1244,
      "ite": 1245,
      "Ġforhold": 1246,
      "sv": 1247,
      "syn": 1248,
      "ise": 1249,
      "Ġofte": 1250,
      "Ġma": 1251,
      "raft": 1252,
      ".[": 1253,
      "ĠY": 1254,
      "stem": 1255,
      "Ġtidligere": 1256,
      "Ġmus": 1257,
      "rag": 1258,
      "Ġhvis": 1259,
      "ĠstÃ¸": 1260,
      "stre": 1261,
      "Ġdelt": 1262,
      "sak": 1263,
      "vor": 1264,
      "alit": 1265,
      "Ã©": 1266,
      "Ġkor": 1267,
      "tert": 1268,
      "Ġfordi": 1269,
      "Ġfinner": 1270,
      "la": 1271,
      "Ġannen": 1272,
      "dri": 1273,
      "ĠNord": 1274,
      "18": 1275,
      "ĠÃĺ": 1276,
      "Ġeksempel": 1277,
      "ĠGud": 1278,
      "Ġber": 1279,
      "ĠDer": 1280,
      "Ġstyr": 1281,
      "ĠHot": 1282,
      "heng": 1283,
      "ygg": 1284,
      "likt": 1285,
      "Ġprob": 1286,
      "Ġkanskje": 1287,
      "Ġhus": 1288,
      "Ġfle": 1289,
      "Ġmindre": 1290,
      "gger": 1291,
      "tallet": 1292,
      "ote": 1293,
      "--": 1294,
      "esten": 1295,
      "Ġvidere": 1296,
      "12": 1297,
      "ha": 1298,
      "omm": 1299,
      "til": 1300,
      "ĠPÃ¥": 1301,
      "Ġfakt": 1302,
      "ksom": 1303,
      "Ġbok": 1304,
      "ges": 1305,
      "Ġfinnes": 1306,
      "anse": 1307,
      "up": 1308,
      "Ġ^": 1309,
      "Ġmat": 1310,
      "Ġkal": 1311,
      "stÃ¥": 1312,
      "ial": 1313,
      "Ġster": 1314,
      "skapet": 1315,
      "br": 1316,
      "Ã¥d": 1317,
      "Ġvann": 1318,
      "revet": 1319,
      "aff": 1320,
      "ĠÃ¥p": 1321,
      "ĠprÃ¸": 1322,
      "tidig": 1323,
      "Ġtok": 1324,
      "Ġdine": 1325,
      "Ġbilder": 1326,
      "enner": 1327,
      "orde": 1328,
      "ĠmÃ¥tte": 1329,
      "ress": 1330,
      "Ġkamp": 1331,
      "assen": 1332,
      "ĠNe": 1333,
      "agt": 1334,
      "Ġlever": 1335,
      "post": 1336,
      "ĠdÃ¸": 1337,
      "Ġslutt": 1338,
      "bl": 1339,
      "handling": 1340,
      "berg": 1341,
      "gende": 1342,
      "Ġsak": 1343,
      "Ġpros": 1344,
      "Ġutv": 1345,
      "Ġ199": 1346,
      "Ġblog": 1347,
      "Ġtjene": 1348,
      "ina": 1349,
      "ice": 1350,
      "Ġklar": 1351,
      "of": 1352,
      "ĠlÃ¸p": 1353,
      "ĠsÃ¸r": 1354,
      "Ġlok": 1355,
      "Ġfamil": 1356,
      "Ġmann": 1357,
      "ĠMed": 1358,
      "Ġskap": 1359,
      "Ġstud": 1360,
      "Ġ20": 1361,
      "Ġmig": 1362,
      "gjeng": 1363,
      "Ġvet": 1364,
      "Ġderfor": 1365,
      "Ġbo": 1366,
      "stra": 1367,
      "Ġspill": 1368,
      "Ġ/": 1369,
      "ighet": 1370,
      "ĠkjÃ¸p": 1371,
      "ĠfÃ¸rst": 1372,
      "alv": 1373,
      "Ġhvil": 1374,
      "jen": 1375,
      "ue": 1376,
      "Ġvin": 1377,
      "ond": 1378,
      "onom": 1379,
      "stilling": 1380,
      "gan": 1381,
      "ikken": 1382,
      "SA": 1383,
      "ga": 1384,
      "elder": 1385,
      "Ġlangt": 1386,
      "Ġsenere": 1387,
      "stad": 1388,
      "ider": 1389,
      "Ġviser": 1390,
      "ema": 1391,
      "bar": 1392,
      "fÃ¸re": 1393,
      "idler": 1394,
      "Ġang": 1395,
      "ons": 1396,
      "ĠmÃ¥l": 1397,
      "olle": 1398,
      "Ġintern": 1399,
      "Ġbra": 1400,
      "Ġkjent": 1401,
      "ĠâĢ": 1402,
      "Ġgjort": 1403,
      "Ãħ": 1404,
      "Ġon": 1405,
      "ĠmÃ¥n": 1406,
      "ivers": 1407,
      "Ġjord": 1408,
      "Ġtiden": 1409,
      "Ġbor": 1410,
      "Ġbestem": 1411,
      "Ġled": 1412,
      "gel": 1413,
      "ĠsmÃ¥": 1414,
      "!!": 1415,
      "ht": 1416,
      "ĠstÃ¸rre": 1417,
      "ĠbÃ¸r": 1418,
      "Ã¦rlig": 1419,
      "Ġalltid": 1420,
      "Ġis": 1421,
      "dige": 1422,
      "Ġoppd": 1423,
      "ĠSe": 1424,
      "utter": 1425,
      "Ġnorsk": 1426,
      "Ġskjer": 1427,
      "Ġulike": 1428,
      "Ġth": 1429,
      "Ġgjerne": 1430,
      "ĠÃħ": 1431,
      "int": 1432,
      "pper": 1433,
      "unkt": 1434,
      "kluder": 1435,
      "Ġmener": 1436,
      "Ġben": 1437,
      "ĠlÃ¥": 1438,
      "Ġinst": 1439,
      "sj": 1440,
      "Ġkar": 1441,
      "Ġju": 1442,
      "ember": 1443,
      "Ġjobb": 1444,
      "dd": 1445,
      "Ġrep": 1446,
      "ame": 1447,
      ":||": 1448,
      "Ġnatur": 1449,
      "Ġliten": 1450,
      "Ġaldri": 1451,
      "ringer": 1452,
      "Ġett": 1453,
      "ral": 1454,
      "Ġmine": 1455,
      "15": 1456,
      "Ġele": 1457,
      "Ã¦rer": 1458,
      "serv": 1459,
      "Ġplass": 1460,
      "Ġ13": 1461,
      "Ġrekke": 1462,
      "ows": 1463,
      "kelig": 1464,
      "ford": 1465,
      "ĠmÃ¥te": 1466,
      "ook": 1467,
      "Ġhvert": 1468,
      "ĠsvÃ¦rt": 1469,
      "our": 1470,
      "Ġpr": 1471,
      "Â».": 1472,
      "14": 1473,
      "sted": 1474,
      "Ġkre": 1475,
      "vert": 1476,
      "Ġhatt": 1477,
      "ĠlÃ¸": 1478,
      "Ġkomp": 1479,
      "askin": 1480,
      "ĠSam": 1481,
      "Ġtrenger": 1482,
      "ratis": 1483,
      "Ġdi": 1484,
      "Ġtilgjeng": 1485,
      "Ġhe": 1486,
      "Ġres": 1487,
      "alitet": 1488,
      "Ġmennesker": 1489,
      "Ġhotellet": 1490,
      "Ġfast": 1491,
      "ĠhÃ¥nd": 1492,
      "svar": 1493,
      "Ġprogram": 1494,
      "Ġhjelp": 1495,
      "sket": 1496,
      "Ġtilf": 1497,
      "kur": 1498,
      "ksjoner": 1499,
      "her": 1500,
      "Ġnavn": 1501,
      "smÃ¥l": 1502,
      "ros": 1503,
      "ĠHar": 1504,
      "Ġkroner": 1505,
      "gt": 1506,
      "Ġpris": 1507,
      "asil": 1508,
      "fÃ¸rt": 1509,
      "Ġfyl": 1510,
      "Ġ14": 1511,
      "elef": 1512,
      "age": 1513,
      "anser": 1514,
      "ign": 1515,
      "vil": 1516,
      "rum": 1517,
      "201": 1518,
      "Ġdy": 1519,
      "ore": 1520,
      "Ġstort": 1521,
      "Ġca": 1522,
      "ban": 1523,
      "Ġtry": 1524,
      "ĠSÃ¥": 1525,
      "De": 1526,
      "EN": 1527,
      "esp": 1528,
      "ĠHotel": 1529,
      "Ġfot": 1530,
      "ubb": 1531,
      "Ġheller": 1532,
      "skelig": 1533,
      "indows": 1534,
      "16": 1535,
      "Ġsik": 1536,
      "Ġmillioner": 1537,
      "Ġsommer": 1538,
      "Ġgjorde": 1539,
      "Ġbid": 1540,
      "Ġkort": 1541,
      "Ġkultur": 1542,
      "lys": 1543,
      "ĠnÃ¸d": 1544,
      "Ġsamfunn": 1545,
      "Ġenkelt": 1546,
      "alte": 1547,
      "po": 1548,
      "Ġsol": 1549,
      "Ġstart": 1550,
      "reg": 1551,
      "Ġlett": 1552,
      "Ġorgan": 1553,
      "Ġutvikling": 1554,
      "pr": 1555,
      "Ã¥tt": 1556,
      "aller": 1557,
      "ĠNÃ¥r": 1558,
      "13": 1559,
      "kn": 1560,
      "des": 1561,
      "veg": 1562,
      "Ġsatt": 1563,
      "Ġgre": 1564,
      "mene": 1565,
      "Ġbort": 1566,
      "ĠfÃ¸": 1567,
      "dus": 1568,
      "ĠEr": 1569,
      "ĠEt": 1570,
      "20": 1571,
      "sn": 1572,
      "Ġbeh": 1573,
      "ĠstÃ¸rste": 1574,
      "ĠRe": 1575,
      "ppen": 1576,
      "Ġpres": 1577,
      "oks": 1578,
      "Ġinkluder": 1579,
      "teg": 1580,
      "ah": 1581,
      "inne": 1582,
      "Ġdager": 1583,
      "ager": 1584,
      "ĠMan": 1585,
      "Ġtror": 1586,
      "Sk": 1587,
      "ĠTh": 1588,
      "Ġgjelder": 1589,
      "Ġfleste": 1590,
      "ĠâĢĿ": 1591,
      "Ġlite": 1592,
      "Ġsynes": 1593,
      "Ġute": 1594,
      "gjÃ¸r": 1595,
      "Ġbrukt": 1596,
      "Ġdig": 1597,
      "roll": 1598,
      "Ġsit": 1599,
      "Ġkunst": 1600,
      "Ġbas": 1601,
      "bud": 1602,
      "ei": 1603,
      "Ġmitt": 1604,
      "Ġkir": 1605,
      "ĠlÃ¸s": 1606,
      "kv": 1607,
      "Ġsted": 1608,
      "ike": 1609,
      "Ġfire": 1610,
      "Ġmedlem": 1611,
      "verk": 1612,
      "ity": 1613,
      "Ġlenge": 1614,
      "part": 1615,
      "rukt": 1616,
      "ĠDenne": 1617,
      "ĠJoh": 1618,
      "fly": 1619,
      "Ġfortsatt": 1620,
      "Ġallerede": 1621,
      "oden": 1622,
      "Ġside": 1623,
      "Ġenkel": 1624,
      "ffekt": 1625,
      "ins": 1626,
      "50": 1627,
      "PÃ¥": 1628,
      "ĠHvis": 1629,
      "Ġlaget": 1630,
      "ww": 1631,
      "Ġgamle": 1632,
      "Ġansvar": 1633,
      "kon": 1634,
      "io": 1635,
      "Ġmark": 1636,
      "Ġforskjel": 1637,
      "Ġdri": 1638,
      "Ġgjen": 1639,
      "akke": 1640,
      "ytte": 1641,
      "Ġhold": 1642,
      "Ġprosje": 1643,
      "Ġdire": 1644,
      "Ã¸ker": 1645,
      "Ġinv": 1646,
      "Ġverdens": 1647,
      "Ġganger": 1648,
      "yttet": 1649,
      "mark": 1650,
      "par": 1651,
      "rens": 1652,
      "fil": 1653,
      "yt": 1654,
      "under": 1655,
      "urder": 1656,
      "Ġgener": 1657,
      "ansk": 1658,
      "orer": 1659,
      "iten": 1660,
      "ĠBl": 1661,
      "11": 1662,
      "uler": 1663,
      "terer": 1664,
      "Ġlandet": 1665,
      "oft": 1666,
      "tre": 1667,
      "enes": 1668,
      "Ã¥ende": 1669,
      "holder": 1670,
      "Ġforn": 1671,
      "Ã¸dt": 1672,
      "rang": 1673,
      "Ġkrig": 1674,
      "ubli": 1675,
      "sg": 1676,
      "Ġ2012": 1677,
      "Al": 1678,
      "man": 1679,
      "tak": 1680,
      "ck": 1681,
      "ank": 1682,
      "Ġkm": 1683,
      "Ġaktiv": 1684,
      "ĠlÃ¸pet": 1685,
      "sam": 1686,
      "urer": 1687,
      "Ġkonf": 1688,
      "dighet": 1689,
      "Ġslag": 1690,
      "Ġsvar": 1691,
      "Ġbyen": 1692,
      "Ġfjer": 1693,
      "ĠTil": 1694,
      "avnet": 1695,
      "ĠWindows": 1696,
      "rÃ¥k": 1697,
      "dt": 1698,
      "ink": 1699,
      "Ġdeler": 1700,
      "ĠÃ¸konom": 1701,
      "Ġvanlig": 1702,
      "bef": 1703,
      "ex": 1704,
      "Ġhalv": 1705,
      "ivÃ¥": 1706,
      "tet": 1707,
      "aten": 1708,
      "fl": 1709,
      "Ġid": 1710,
      "Ġkost": 1711,
      "ummer": 1712,
      "Ġdagen": 1713,
      "ile": 1714,
      "vÃ¦r": 1715,
      "akker": 1716,
      "ĠEl": 1717,
      "ĠEuro": 1718,
      "Ãĺ": 1719,
      "Ġutt": 1720,
      "Ġneste": 1721,
      "Ġavsl": 1722,
      "Ġbrukes": 1723,
      "30": 1724,
      "ĠEtter": 1725,
      "Ġgrupp": 1726,
      "nen": 1727,
      "Ġvirkelig": 1728,
      "arer": 1729,
      "Ġkjem": 1730,
      "Ġtilgjengelig": 1731,
      "Du": 1732,
      "sikt": 1733,
      "rene": 1734,
      "unnet": 1735,
      "okk": 1736,
      "rid": 1737,
      "lagt": 1738,
      "Ġsette": 1739,
      "Ġter": 1740,
      "iene": 1741,
      "rasjon": 1742,
      "ttet": 1743,
      "Ġvanskelig": 1744,
      "17": 1745,
      "fra": 1746,
      "iker": 1747,
      "pa": 1748,
      "unt": 1749,
      "ĠfÃ¸lge": 1750,
      "elefon": 1751,
      "omrÃ¥": 1752,
      "rand": 1753,
      "sett": 1754,
      "ĠdÃ¸d": 1755,
      "Ġfem": 1756,
      "ĠspÃ¸rsmÃ¥l": 1757,
      "Ġpos": 1758,
      "Ġutg": 1759,
      "âĢĻ": 1760,
      "idlertid": 1761,
      "Ġstand": 1762,
      "asiliteter": 1763,
      "Ġkontakt": 1764,
      "sfor": 1765,
      "ĠPro": 1766,
      "ibli": 1767,
      "Ġ30": 1768,
      "Ġ&": 1769,
      "uten": 1770,
      "Ġtren": 1771,
      "Ġsos": 1772,
      "rykk": 1773,
      "Ġbetyd": 1774,
      "ĠUSA": 1775,
      "Ġmang": 1776,
      "Ġnasjon": 1777,
      "Ġstra": 1778,
      "Ġskole": 1779,
      "Ġoper": 1780,
      "agen": 1781,
      "Ġtekn": 1782,
      "ES": 1783,
      "Ġbef": 1784,
      "iale": 1785,
      "sÃ¸k": 1786,
      "syk": 1787,
      "ograf": 1788,
      "Dette": 1789,
      "lin": 1790,
      "Ġbyg": 1791,
      "Ġ:)": 1792,
      "sta": 1793,
      "ĠAnd": 1794,
      "Ġhelse": 1795,
      "one": 1796,
      "uni": 1797,
      "Ġmet": 1798,
      "Ġganske": 1799,
      "Ġfaktisk": 1800,
      "ies": 1801,
      "uelle": 1802,
      "ansen": 1803,
      "mb": 1804,
      "ĠnÃ¸dven": 1805,
      "batt": 1806,
      "Ã¶": 1807,
      "ningene": 1808,
      "Ġforskjellige": 1809,
      "Ġnesten": 1810,
      "vere": 1811,
      "Ġsamarbeid": 1812,
      "Â»,": 1813,
      "Ġrask": 1814,
      "Ġsikker": 1815,
      "oli": 1816,
      "Men": 1817,
      "eldre": 1818,
      "Etter": 1819,
      "menn": 1820,
      "uar": 1821,
      "Ġ198": 1822,
      "grunn": 1823,
      "iste": 1824,
      "kes": 1825,
      "ĠHerren": 1826,
      "Ġresult": 1827,
      "mann": 1828,
      "uer": 1829,
      "Ġste": 1830,
      "Ġfeil": 1831,
      "ĠHun": 1832,
      "ibliote": 1833,
      "Ġsamtidig": 1834,
      "Ġung": 1835,
      "Ġveg": 1836,
      "aks": 1837,
      "Ġstem": 1838,
      "Ġsty": 1839,
      "rolig": 1840,
      "ologi": 1841,
      "Ġtilbyr": 1842,
      "ĠX": 1843,
      "Ġmoder": 1844,
      "Ġleder": 1845,
      "ĠNÃ¥": 1846,
      "ĠBe": 1847,
      "ĠOl": 1848,
      "Ġ11": 1849,
      "ack": 1850,
      "Ġ2011": 1851,
      "Ġfol": 1852,
      "Ġegentlig": 1853,
      "Ġsli": 1854,
      "anter": 1855,
      "atet": 1856,
      "jem": 1857,
      "meld": 1858,
      "nad": 1859,
      "Ġkraft": 1860,
      "Ġlagt": 1861,
      "ĠaltsÃ¥": 1862,
      "Ã¥nd": 1863,
      "Ġskriver": 1864,
      "Ġenda": 1865,
      "bygg": 1866,
      "urat": 1867,
      "ĠSh": 1868,
      "ppe": 1869,
      "Ġriktig": 1870,
      "Ġproble": 1871,
      "ĠMic": 1872,
      "Her": 1873,
      "melig": 1874,
      "merik": 1875,
      "Ġsyk": 1876,
      "Ġperi": 1877,
      "Ġret": 1878,
      "ĠRo": 1879,
      "delser": 1880,
      "fe": 1881,
      "Ġgitt": 1882,
      "ĠâĢľ": 1883,
      "Ġforts": 1884,
      "ĠvÃ¥rt": 1885,
      "ator": 1886,
      "ith": 1887,
      "âĢ¦": 1888,
      "Ġekstra": 1889,
      ")|": 1890,
      "Ġdra": 1891,
      "vir": 1892,
      "ĠUt": 1893,
      "ĠZ": 1894,
      "Ġspesielt": 1895,
      "Ġimidlertid": 1896,
      "kont": 1897,
      "Ġkap": 1898,
      "ats": 1899,
      "jÃ¸rn": 1900,
      "Ġdom": 1901,
      "ennes": 1902,
      "ĠLe": 1903,
      "Ġhjemme": 1904,
      "lene": 1905,
      "Ġkr": 1906,
      "ĠFran": 1907,
      "Ġlivet": 1908,
      "ĠSom": 1909,
      "Ġbygg": 1910,
      "Ã¤": 1911,
      "Ġtap": 1912,
      "Ġopplev": 1913,
      "arl": 1914,
      "Ġol": 1915,
      "ĠmÃ¥ned": 1916,
      "Les": 1917,
      "fri": 1918,
      "ork": 1919,
      "Ġmob": 1920,
      "Ġak": 1921,
      "skri": 1922,
      "Ġeneste": 1923,
      "Ġfelle": 1924,
      "likk": 1925,
      "uss": 1926,
      "Ġnev": 1927,
      "aker": 1928,
      "Ġinteres": 1929,
      "isert": 1930,
      "Ġstedet": 1931,
      "Ġhav": 1932,
      "Ġmar": 1933,
      "ĠVed": 1934,
      "Ġholde": 1935,
      "ĠstÃ¸tte": 1936,
      "amer": 1937,
      "Ġdirekte": 1938,
      "Ġ000": 1939,
      "Ġind": 1940,
      "Ġreis": 1941,
      "enser": 1942,
      "Ġeffekt": 1943,
      "Ġlage": 1944,
      "Ġpersoner": 1945,
      "eks": 1946,
      "Ġtill": 1947,
      "ĠNorges": 1948,
      "skrift": 1949,
      "Ġvise": 1950,
      "ild": 1951,
      "Ġab": 1952,
      "Ġgrad": 1953,
      "ftet": 1954,
      "Ġmod": 1955,
      "Ġvest": 1956,
      "Ġtilgang": 1957,
      "....": 1958,
      "Ġprosent": 1959,
      "Ġmars": 1960,
      "urt": 1961,
      "IN": 1962,
      "ĠBar": 1963,
      "Ġoppr": 1964,
      "Ġsh": 1965,
      "Ġ100": 1966,
      "usen": 1967,
      "Ġinternasjon": 1968,
      "Ġinnlegg": 1969,
      "akter": 1970,
      "Og": 1971,
      "ient": 1972,
      "Ġfry": 1973,
      "ennende": 1974,
      "fÃ¸lge": 1975,
      "ilte": 1976,
      "Ġpass": 1977,
      "Ġleng": 1978,
      "Ġkong": 1979,
      "ET": 1980,
      "fatter": 1981,
      "Ġdisk": 1982,
      "Ġkro": 1983,
      "Ġoppg": 1984,
      "itter": 1985,
      "Ġevent": 1986,
      "Ġem": 1987,
      "ete": 1988,
      "Ġvurder": 1989,
      "ingene": 1990,
      "Ġminutter": 1991,
      "skaper": 1992,
      "kkurat": 1993,
      "Ġperf": 1994,
      "ĠdÃ¥r": 1995,
      "ilder": 1996,
      "Ġide": 1997,
      "Ġpop": 1998,
      "andre": 1999,
      "Ġlegge": 2000,
      "Ġklart": 2001,
      "Ġfantast": 2002,
      "ĠNew": 2003,
      "Ġtru": 2004,
      "stedet": 2005,
      "sd": 2006,
      "Ġsend": 2007,
      "Ġsig": 2008,
      "Ġpost": 2009,
      "bu": 2010,
      "erte": 2011,
      "Ġaut": 2012,
      "Ġgratis": 2013,
      "ĠEx": 2014,
      "Ġluft": 2015,
      "ĠmiljÃ¸": 2016,
      "fall": 2017,
      "nn": 2018,
      "anuar": 2019,
      "ivt": 2020,
      "Ġhenne": 2021,
      "frik": 2022,
      "Ġstad": 2023,
      "Ġvei": 2024,
      "Ġbehov": 2025,
      "Ġint": 2026,
      "fatt": 2027,
      "ĠbesÃ¸k": 2028,
      "Ġoppdater": 2029,
      "lÃ¸s": 2030,
      "Ġ22": 2031,
      "radisjon": 2032,
      "Ġmusikk": 2033,
      "ĠTV": 2034,
      "Ġmott": 2035,
      "Ġdersom": 2036,
      "Ġmai": 2037,
      "tale": 2038,
      "Ġses": 2039,
      "Ġdyr": 2040,
      "adet": 2041,
      "fin": 2042,
      "Ġkunn": 2043,
      "Ġregist": 2044,
      "ugust": 2045,
      "Ġhu": 2046,
      "Ġbut": 2047,
      "Ġartikk": 2048,
      "qu": 2049,
      "Ġhjer": 2050,
      "Ġegne": 2051,
      "ĠBergen": 2052,
      "itenskap": 2053,
      "ng": 2054,
      "Ġfj": 2055,
      "ĠKrist": 2056,
      "Ġhjelpe": 2057,
      "pÃ¥": 2058,
      "Ġsann": 2059,
      "egn": 2060,
      "Ġnatt": 2061,
      "Ġtak": 2062,
      "Ã¸se": 2063,
      "komm": 2064,
      "bin": 2065,
      "Ġit": 2066,
      "Ġjuni": 2067,
      "okus": 2068,
      "Ġspiller": 2069,
      "ĠPl": 2070,
      "vare": 2071,
      "Ġsc": 2072,
      "iss": 2073,
      "agn": 2074,
      "Ġminst": 2075,
      "Ġskrive": 2076,
      "Ġfjell": 2077,
      "Ġark": 2078,
      "Ġeget": 2079,
      "Ġfag": 2080,
      "Ġener": 2081,
      "Ġanbef": 2082,
      "Ġforv": 2083,
      "uts": 2084,
      "Se": 2085,
      "oler": 2086,
      "Ġtv": 2087,
      "Ġbur": 2088,
      "atisk": 2089,
      "Ġbetyr": 2090,
      "Ġbilde": 2091,
      "ĠforstÃ¥": 2092,
      "ald": 2093,
      "Ġutvalg": 2094,
      "ĠPar": 2095,
      "senter": 2096,
      "Med": 2097,
      "ikt": 2098,
      "ph": 2099,
      "th": 2100,
      "Ġob": 2101,
      "Ġ196": 2102,
      "Ġseks": 2103,
      "Ġ50": 2104,
      "Ar": 2105,
      "ĠDan": 2106,
      "Ġstar": 2107,
      "Ġvide": 2108,
      "ori": 2109,
      "spro": 2110,
      "Ġbegge": 2111,
      "ĠhÃ¸": 2112,
      "skj": 2113,
      "Ġetab": 2114,
      "Ġ24": 2115,
      "Ġprodus": 2116,
      "ĠÃ¥ret": 2117,
      "kost": 2118,
      "Ġopphold": 2119,
      "Ġkommet": 2120,
      "Ġlikevel": 2121,
      "lingen": 2122,
      "elses": 2123,
      "pril": 2124,
      "Ã¸rt": 2125,
      "Ġmenn": 2126,
      "ĠUnivers": 2127,
      "ĠLa": 2128,
      "spill": 2129,
      "Ġ,": 2130,
      "Ġtra": 2131,
      "Ġpriv": 2132,
      "ung": 2133,
      "ath": 2134,
      "ative": 2135,
      "Ġkvinner": 2136,
      "rike": 2137,
      "Ġregjer": 2138,
      "Hvis": 2139,
      "ĠsÃ¦rlig": 2140,
      "Ġtimer": 2141,
      "sÃ¸": 2142,
      "Ã¥let": 2143,
      "inst": 2144,
      "ksjonen": 2145,
      "ksomhet": 2146,
      "kre": 2147,
      "use": 2148,
      "Ġkrav": 2149,
      "heim": 2150,
      "pet": 2151,
      "sst": 2152,
      "Ġvers": 2153,
      "Ġutd": 2154,
      "fort": 2155,
      "sland": 2156,
      "Ġmeget": 2157,
      "Ġbegynte": 2158,
      "):": 2159,
      "Nor": 2160,
      "bas": 2161,
      "Ġ.": 2162,
      "Ġbel": 2163,
      "Ġvenn": 2164,
      "oren": 2165,
      "Ġimp": 2166,
      "Ġderetter": 2167,
      "Ġholder": 2168,
      "rige": 2169,
      "Ġkonkur": 2170,
      "Ġ197": 2171,
      "Ġbarne": 2172,
      "\".": 2173,
      "Ġme": 2174,
      "Ġbry": 2175,
      "ĠHa": 2176,
      "Ġtidlig": 2177,
      "ja": 2178,
      "Ġfre": 2179,
      "Ġerfar": 2180,
      "akken": 2181,
      "Ġorganis": 2182,
      "Ġtred": 2183,
      "ĠIs": 2184,
      "ebru": 2185,
      "delig": 2186,
      "ilig": 2187,
      "Ã¸rdag": 2188,
      "ĠSÃ¸r": 2189,
      "atene": 2190,
      "ĠOm": 2191,
      "spl": 2192,
      "bok": 2193,
      "ĠmÃ¸te": 2194,
      "Ġga": 2195,
      "Ġ25": 2196,
      "Ġforkl": 2197,
      "Ġspennende": 2198,
      "ansett": 2199,
      "Ġfilm": 2200,
      "ĠnÃ¸dvendig": 2201,
      "ebruar": 2202,
      "ensjon": 2203,
      "Ġkur": 2204,
      "Ġpenger": 2205,
      "Ġjanuar": 2206,
      "Ġutford": 2207,
      "Ġvelge": 2208,
      "ptem": 2209,
      "Ġtem": 2210,
      "Ġakkurat": 2211,
      "Ġvind": 2212,
      "Ġskyl": 2213,
      "bruk": 2214,
      "ĠomrÃ¥det": 2215,
      "Ġforteller": 2216,
      "Ġferdig": 2217,
      "ose": 2218,
      "relse": 2219,
      "ĠGe": 2220,
      "Ġfint": 2221,
      "//": 2222,
      "Ġforret": 2223,
      "ĠHans": 2224,
      "ensen": 2225,
      "ĠKan": 2226,
      "Ġlegger": 2227,
      "ips": 2228,
      "ptember": 2229,
      "ĠlÃ¦re": 2230,
      "Ġutrolig": 2231,
      "Ġrel": 2232,
      "Ġmorgen": 2233,
      "Ġslike": 2234,
      "Ġmel": 2235,
      "Ġliker": 2236,
      "rosoft": 2237,
      "Har": 2238,
      "vÃ¥": 2239,
      "Ġpas": 2240,
      "ulig": 2241,
      "Ġban": 2242,
      "Ġforl": 2243,
      "oller": 2244,
      "Ġspille": 2245,
      "ĠIntern": 2246,
      "Ġfest": 2247,
      "Ġskrevet": 2248,
      "ĠrÃ¥d": 2249,
      "ĠAlle": 2250,
      "ĠvÃ¦r": 2251,
      "Ġuke": 2252,
      "orten": 2253,
      "ym": 2254,
      "ongen": 2255,
      "indelse": 2256,
      "Ġkveld": 2257,
      "ĠdÃ¸de": 2258,
      "Ut": 2259,
      "asje": 2260,
      "ĠÃ©": 2261,
      "Ġutenfor": 2262,
      "ern": 2263,
      "Ġtan": 2264,
      "Ġtradisjon": 2265,
      "'s": 2266,
      "bet": 2267,
      "ium": 2268,
      "Ġtot": 2269,
      "Ġgar": 2270,
      "ĠÃ¥rene": 2271,
      "ll": 2272,
      "ove": 2273,
      "Ġlin": 2274,
      "Ġlenger": 2275,
      "Ġinnhold": 2276,
      "ober": 2277,
      "ader": 2278,
      "ĠDisse": 2279,
      "ersom": 2280,
      "Ġpopul": 2281,
      "Sp": 2282,
      "Til": 2283,
      "az": 2284,
      "Ġforh": 2285,
      "RK": 2286,
      "reng": 2287,
      "ĠInn": 2288,
      "----": 2289,
      "ĠÃ©n": 2290,
      "bund": 2291,
      "Ġmater": 2292,
      "entar": 2293,
      "ogen": 2294,
      "Ġkvalitet": 2295,
      "Ġbred": 2296,
      "essen": 2297,
      "Ã¥ret": 2298,
      "Ġvia": 2299,
      "ivet": 2300,
      "Ġlese": 2301,
      "ĠÃ¸st": 2302,
      "ham": 2303,
      "way": 2304,
      "entene": 2305,
      "SÃ¥": 2306,
      "rar": 2307,
      "Ġmasse": 2308,
      "ĠMer": 2309,
      "Ġinkludert": 2310,
      "ood": 2311,
      "Ġus": 2312,
      "Ġstol": 2313,
      "rip": 2314,
      "spunkt": 2315,
      "ĠgÃ¥tt": 2316,
      "ĠSch": 2317,
      "mid": 2318,
      "Ġvoks": 2319,
      "Ġinsp": 2320,
      "ĠRom": 2321,
      "isen": 2322,
      "Ġei": 2323,
      "Ġjuli": 2324,
      "Ġkonflikt": 2325,
      "Ġkart": 2326,
      "ight": 2327,
      "ĠOr": 2328,
      "Ġfran": 2329,
      "Ġhev": 2330,
      "Ġne": 2331,
      "Ã¸ren": 2332,
      "Ġbehandling": 2333,
      "Ġhistorie": 2334,
      "Ã¼": 2335,
      "Ġfebruar": 2336,
      "fÃ¸rer": 2337,
      "ach": 2338,
      "ĠSol": 2339,
      "ikkert": 2340,
      "Ġdermed": 2341,
      "fÃ¸lg": 2342,
      "Opp": 2343,
      "Ġfe": 2344,
      "Ġatt": 2345,
      "Ġtopp": 2346,
      "tatt": 2347,
      "Ġdro": 2348,
      "stÃ¥r": 2349,
      "lekt": 2350,
      "rim": 2351,
      "ĠfÃ¸lgende": 2352,
      "Ġenkelte": 2353,
      "aen": 2354,
      "Ġfasiliteter": 2355,
      "ment": 2356,
      "ĠOpp": 2357,
      "Ġkontroll": 2358,
      "Ġeksp": 2359,
      "Ġversjon": 2360,
      "NÃ¥r": 2361,
      "ball": 2362,
      "iz": 2363,
      "stene": 2364,
      "Ġutgang": 2365,
      "oven": 2366,
      "akket": 2367,
      "Ġhennes": 2368,
      "ĠtÃ¸r": 2369,
      "Ġprof": 2370,
      "Ġsyke": 2371,
      "plass": 2372,
      "Ã¸mme": 2373,
      "Ġdatam": 2374,
      "Ġunge": 2375,
      "vern": 2376,
      "Ġ194": 2377,
      "rettet": 2378,
      "Ġproblem": 2379,
      "ĠsÃ¸k": 2380,
      "egg": 2381,
      "Ġlys": 2382,
      "ĠChrist": 2383,
      "22": 2384,
      "kkel": 2385,
      "sep": 2386,
      "ĠAv": 2387,
      "Ã¸ndag": 2388,
      "ĠStor": 2389,
      "mon": 2390,
      "ye": 2391,
      "Ġsende": 2392,
      "Ġfokus": 2393,
      "Ġseptember": 2394,
      "ĠÃ¸v": 2395,
      "Ġferie": 2396,
      "Hva": 2397,
      "ule": 2398,
      "terte": 2399,
      "ĠSer": 2400,
      "iks": 2401,
      "ttp": 2402,
      "Ġlav": 2403,
      "Inn": 2404,
      "kene": 2405,
      "olit": 2406,
      "Ġmakt": 2407,
      "Ġhund": 2408,
      "ĠÃ¥pen": 2409,
      "ften": 2410,
      "Ġdagens": 2411,
      "Et": 2412,
      "Ġfunnet": 2413,
      "Ã¸v": 2414,
      "edd": 2415,
      "Ġsteder": 2416,
      "ĠSelv": 2417,
      "AT": 2418,
      "Ġengel": 2419,
      "rader": 2420,
      "Ġstille": 2421,
      "Ġtjenester": 2422,
      "Ġaugust": 2423,
      "ĠSver": 2424,
      "Han": 2425,
      "Ġsje": 2426,
      "Ġforbindelse": 2427,
      "Ġmoderne": 2428,
      "Ġfelles": 2429,
      "://": 2430,
      "stemet": 2431,
      "Ġnov": 2432,
      "gÃ¥r": 2433,
      "hav": 2434,
      "Ġsky": 2435,
      "Ġtilbud": 2436,
      "ample": 2437,
      "Ġfunger": 2438,
      "OR": 2439,
      "Ġvold": 2440,
      "ĠRes": 2441,
      "Ġantall": 2442,
      "Ġholdt": 2443,
      "Ġetabler": 2444,
      "name": 2445,
      "Ġapril": 2446,
      "ĠsprÃ¥k": 2447,
      "udd": 2448,
      "ĠprÃ¸ve": 2449,
      "AN": 2450,
      "tr": 2451,
      "Ġdok": 2452,
      "Ġfine": 2453,
      "ace": 2454,
      "Ġserv": 2455,
      "Ġdesember": 2456,
      "giv": 2457,
      "oss": 2458,
      "ton": 2459,
      "Ġpsyk": 2460,
      "ĠnÃ¸y": 2461,
      "ase": 2462,
      "ata": 2463,
      "indle": 2464,
      "Ġarbeidet": 2465,
      "Ġkunnskap": 2466,
      "IS": 2467,
      "vid": 2468,
      "ĠHe": 2469,
      "Ġhverandre": 2470,
      "ĠnÃ¦rm": 2471,
      "Ġinnenfor": 2472,
      "Ġsaken": 2473,
      "Ġsitu": 2474,
      "ĠEuropa": 2475,
      "af": 2476,
      "pass": 2477,
      "Ġram": 2478,
      "Ġkry": 2479,
      "Ġinneholder": 2480,
      "Ġproblemer": 2481,
      "Ġfall": 2482,
      "istri": 2483,
      "example": 2484,
      "The": 2485,
      "Â§": 2486,
      "Ã¦ren": 2487,
      "ublik": 2488,
      "Ġ2010": 2489,
      "sler": 2490,
      "Ġmeter": 2491,
      "emlig": 2492,
      "Ġkons": 2493,
      "ekte": 2494,
      "Ġwith": 2495,
      "Ġtredje": 2496,
      "ident": 2497,
      "Ġlik": 2498,
      "vin": 2499,
      "Ġop": 2500,
      ":)": 2501,
      "kort": 2502,
      "unde": 2503,
      "essuten": 2504,
      "minist": 2505,
      "Ġoffentlig": 2506,
      "25": 2507,
      "NÃ¥": 2508,
      "okrat": 2509,
      "Ġarrang": 2510,
      "Ġ2009": 2511,
      "24": 2512,
      "entlige": 2513,
      "ĠEng": 2514,
      "Ġredus": 2515,
      "Ġpasser": 2516,
      "Ġforskning": 2517,
      "uft": 2518,
      "ĠAt": 2519,
      "Ġnorm": 2520,
      "Da": 2521,
      "mt": 2522,
      "Ġokt": 2523,
      "oret": 2524,
      "Ġgrav": 2525,
      "isi": 2526,
      "ĠSc": 2527,
      "Ġresta": 2528,
      "kering": 2529,
      "Ġblod": 2530,
      "holde": 2531,
      "brindle": 2532,
      "Ġamerik": 2533,
      "uren": 2534,
      "Ġaltern": 2535,
      "Ġ2008": 2536,
      "Ġsentrum": 2537,
      "Ġkos": 2538,
      "Ġene": 2539,
      "Ġnavnet": 2540,
      "esen": 2541,
      "elsene": 2542,
      "affe": 2543,
      "Ġsikre": 2544,
      "Ad": 2545,
      "Ġsetter": 2546,
      "Ġkrit": 2547,
      "Ġprakt": 2548,
      "obb": 2549,
      "Ġmulighet": 2550,
      "Som": 2551,
      "aster": 2552,
      "Ġelekt": 2553,
      "king": 2554,
      "sli": 2555,
      "Ġvant": 2556,
      "isering": 2557,
      "Ġsterk": 2558,
      "EL": 2559,
      "Om": 2560,
      "avor": 2561,
      "len": 2562,
      "Ġsagt": 2563,
      "Ġfisk": 2564,
      "Ġnemlig": 2565,
      "rael": 2566,
      "otte": 2567,
      "sport": 2568,
      "Ġbildet": 2569,
      "Ġ2013": 2570,
      "Ġ2014": 2571,
      "Ġstoff": 2572,
      "ĠIS": 2573,
      "ĠEg": 2574,
      "-)": 2575,
      "bart": 2576,
      "Ġven": 2577,
      "Ġbeveg": 2578,
      "kjent": 2579,
      "stil": 2580,
      "Ġeier": 2581,
      "ĠLes": 2582,
      "Ġhjelper": 2583,
      "ĠkjÃ¸pe": 2584,
      "Re": 2585,
      "ysk": 2586,
      "Ġ[": 2587,
      "Ġmis": 2588,
      "ĠhÃ¸re": 2589,
      "Ġkalt": 2590,
      "ĠSte": 2591,
      "Ġlyst": 2592,
      "Ġgammel": 2593,
      "hengig": 2594,
      "Ġeng": 2595,
      "ruk": 2596,
      "ĠNoen": 2597,
      "spekt": 2598,
      "verket": 2599,
      "ĠSu": 2600,
      "Ġoppdag": 2601,
      "ors": 2602,
      "Ġtelefon": 2603,
      "Ã¦ring": 2604,
      "Ġhvem": 2605,
      "Ġbygge": 2606,
      "Ġstartet": 2607,
      "Ġungdom": 2608,
      "kan": 2609,
      "tering": 2610,
      "nev": 2611,
      "ĠBo": 2612,
      "Ġeuro": 2613,
      "rond": 2614,
      "alist": 2615,
      "ĠHva": 2616,
      "iali": 2617,
      "ĠhÃ¥per": 2618,
      "jord": 2619,
      "Ġskrev": 2620,
      "synlig": 2621,
      "Ġstadig": 2622,
      "mar": 2623,
      "andet": 2624,
      "Ġ40": 2625,
      "Ġglad": 2626,
      "Denne": 2627,
      "Ġspillet": 2628,
      "last": 2629,
      "erer": 2630,
      "lever": 2631,
      "Ã¥rene": 2632,
      "aken": 2633,
      "Ġraskt": 2634,
      "AR": 2635,
      "ĠFra": 2636,
      "iendom": 2637,
      "aliser": 2638,
      "Ġsnart": 2639,
      "Ġbidra": 2640,
      "aa": 2641,
      "rere": 2642,
      "Ġsikkert": 2643,
      "Ġdann": 2644,
      "Ġhens": 2645,
      "Ġklubb": 2646,
      "Ġbildene": 2647,
      "Ġhuset": 2648,
      "ju": 2649,
      "Ġenten": 2650,
      "isere": 2651,
      "urn": 2652,
      "Ġmilit": 2653,
      "Ġviktigste": 2654,
      "60": 2655,
      "lo": 2656,
      "ĠHol": 2657,
      "ĠAd": 2658,
      "ikere": 2659,
      "tiden": 2660,
      "fÃ¸ring": 2661,
      "grupp": 2662,
      "tok": 2663,
      "ytter": 2664,
      "ĠsÃ¸nn": 2665,
      "arm": 2666,
      "Ġapp": 2667,
      "igheter": 2668,
      "Ġslett": 2669,
      "ĠvÃ¥pen": 2670,
      "Ġtross": 2671,
      "bare": 2672,
      "Ġfred": 2673,
      "Ġko": 2674,
      "ĠTor": 2675,
      "Ġrapp": 2676,
      "IL": 2677,
      "ld": 2678,
      "Ġtema": 2679,
      "Ġpe": 2680,
      "ĠstÃ¥": 2681,
      "Ġreise": 2682,
      "Ġris": 2683,
      "Ġkjente": 2684,
      "rÃ¥d": 2685,
      "Ġkommune": 2686,
      "ĠdÃ¥rlig": 2687,
      "Ġsven": 2688,
      "stri": 2689,
      "Ġ23": 2690,
      "huset": 2691,
      "askinen": 2692,
      ".)": 2693,
      "kking": 2694,
      "ĠMa": 2695,
      "ĠmÃ¸r": 2696,
      "als": 2697,
      "ĠBjÃ¸rn": 2698,
      "ich": 2699,
      "Ġjobber": 2700,
      "Ġvinter": 2701,
      "ca": 2702,
      "ellen": 2703,
      "Ġslutten": 2704,
      "uelt": 2705,
      "linger": 2706,
      "Ġsjel": 2707,
      "Ġytter": 2708,
      "ON": 2709,
      "landet": 2710,
      "Ġsikkerhet": 2711,
      "Ġsykdom": 2712,
      "Ġopprinn": 2713,
      "35": 2714,
      "co": 2715,
      "ror": 2716,
      "Ġmist": 2717,
      "Ġlille": 2718,
      "Ġ28": 2719,
      "ĠMicrosoft": 2720,
      "dde": 2721,
      "valg": 2722,
      "yp": 2723,
      "ĠSel": 2724,
      "ĠDav": 2725,
      "Ġblogg": 2726,
      "Ġbasert": 2727,
      "Ġnovember": 2728,
      "21": 2729,
      "Ġgul": 2730,
      "Ġnettopp": 2731,
      "ock": 2732,
      "Ġtenke": 2733,
      "Ġfantastisk": 2734,
      "oer": 2735,
      "Ġfro": 2736,
      "forbund": 2737,
      "Ã¸yd": 2738,
      "Ġlev": 2739,
      "ument": 2740,
      "resse": 2741,
      "Ġkirke": 2742,
      "Ġposit": 2743,
      "leder": 2744,
      "unktet": 2745,
      "oto": 2746,
      "Ġalvor": 2747,
      "Ġleg": 2748,
      "Ġoktober": 2749,
      "An": 2750,
      "vordan": 2751,
      "Ġuker": 2752,
      "riks": 2753,
      "ĠIkke": 2754,
      "eliggen": 2755,
      "umen": 2756,
      "Ġskolen": 2757,
      "ĠrÃ¥": 2758,
      "Ġkjenner": 2759,
      "Ġekte": 2760,
      "lysninger": 2761,
      "Ġteg": 2762,
      "Ġkonse": 2763,
      "Kr": 2764,
      "kning": 2765,
      "Ã¸ret": 2766,
      "ktor": 2767,
      "Ġutstyr": 2768,
      "ĠTa": 2769,
      "Ġgjest": 2770,
      "ĠPh": 2771,
      "ionen": 2772,
      "ĠSverige": 2773,
      "ko": 2774,
      "mes": 2775,
      "Ġjul": 2776,
      "Ġgangen": 2777,
      "Ġbestille": 2778,
      "Ġforbed": 2779,
      "Ġmidt": 2780,
      "ativt": 2781,
      "Ġge": 2782,
      "Ġindu": 2783,
      "ĠInd": 2784,
      "ĠfÃ¸lger": 2785,
      "ĠomrÃ¥der": 2786,
      "ikke": 2787,
      "siden": 2788,
      "van": 2789,
      "sty": 2790,
      "Ġvok": 2791,
      "Ġlog": 2792,
      "ital": 2793,
      "Ġ21": 2794,
      "ĠVest": 2795,
      "ledes": 2796,
      "Ġfamilie": 2797,
      "frika": 2798,
      "Ġare": 2799,
      "Ġmeld": 2800,
      "Ġmeste": 2801,
      "une": 2802,
      "olf": 2803,
      "Ġvite": 2804,
      "odd": 2805,
      "Ġklass": 2806,
      "ĠÃ¸nsket": 2807,
      "ĠforsÃ¸k": 2808,
      "Ġbloggen": 2809,
      "Ġdetal": 2810,
      "ĠlÃ¸rdag": 2811,
      "ĠMac": 2812,
      "apir": 2813,
      "visning": 2814,
      "resent": 2815,
      "Ġhandler": 2816,
      "Ġsentral": 2817,
      "Ġknyttet": 2818,
      "fyl": 2819,
      "natt": 2820,
      "ta": 2821,
      "Ġfir": 2822,
      "kkes": 2823,
      "Ġch": 2824,
      "uttet": 2825,
      "Ġveien": 2826,
      "repet": 2827,
      "ĠAndre": 2828,
      "Ġheter": 2829,
      "Ġvak": 2830,
      "aling": 2831,
      "ĠNRK": 2832,
      "iger": 2833,
      "Ġlokale": 2834,
      "\",": 2835,
      "Er": 2836,
      "Ġtom": 2837,
      "ĠnivÃ¥": 2838,
      "Ġsku": 2839,
      "ĠMon": 2840,
      "ĠTrond": 2841,
      "ĠsÃ¥nn": 2842,
      "partem": 2843,
      "hver": 2844,
      "stid": 2845,
      "ĠÃ¸del": 2846,
      "Ġreisende": 2847,
      "bum": 2848,
      "anning": 2849,
      "ĠFÃ¸r": 2850,
      "Ġsitter": 2851,
      "Ġpolitiske": 2852,
      "Ġmennesk": 2853,
      "Ġburde": 2854,
      "bil": 2855,
      "Ġhvilke": 2856,
      "Ġmarked": 2857,
      "ps": 2858,
      "Ġforet": 2859,
      "ĠHen": 2860,
      "mo": 2861,
      "ĠDag": 2862,
      "Ġprosjekt": 2863,
      "ure": 2864,
      "Ġsang": 2865,
      "ines": 2866,
      "Ġlitter": 2867,
      "Ġhelst": 2868,
      "Ġbakgrunn": 2869,
      "iere": 2870,
      "ka": 2871,
      "Ġkri": 2872,
      "Ġkat": 2873,
      "Ġrette": 2874,
      "Ġbegrens": 2875,
      "Ġlyd": 2876,
      "laget": 2877,
      "stander": 2878,
      "Ġprodukter": 2879,
      "Ġbenytte": 2880,
      "snitt": 2881,
      "but": 2882,
      "Ġmyn": 2883,
      "aget": 2884,
      "Ġrestaur": 2885,
      "da": 2886,
      "yst": 2887,
      "Ġstre": 2888,
      "Ġregel": 2889,
      "Ġrommet": 2890,
      "ĠkjÃ¸kken": 2891,
      "ĠJohn": 2892,
      "Ġolje": 2893,
      "ric": 2894,
      "Ġprodukt": 2895,
      "iljÃ¸": 2896,
      "edia": 2897,
      "Ġren": 2898,
      "ĠReg": 2899,
      "ĠmÃ¥ten": 2900,
      "imot": 2901,
      "Ġbegynner": 2902,
      "ĠkjÃ¸pt": 2903,
      "mat": 2904,
      "Ġpubli": 2905,
      "Ġfordel": 2906,
      "Ġgull": 2907,
      "aly": 2908,
      "estilling": 2909,
      "ĠKon": 2910,
      "aven": 2911,
      "odet": 2912,
      "ferd": 2913,
      "02": 2914,
      "kel": 2915,
      "line": 2916,
      "Ġsist": 2917,
      "Ġforan": 2918,
      "produ": 2919,
      "ĠQ": 2920,
      "ĠfÃ¸re": 2921,
      "eden": 2922,
      "ĠHotell": 2923,
      "itusjon": 2924,
      "Ġspes": 2925,
      "ĠsÃ¸ke": 2926,
      "Av": 2927,
      "iter": 2928,
      "anne": 2929,
      "orter": 2930,
      "Ã¸de": 2931,
      "alle": 2932,
      "ĠII": 2933,
      "Ġep": 2934,
      "somt": 2935,
      "ĠbestÃ¥r": 2936,
      "Ġyou": 2937,
      "ble": 2938,
      "kret": 2939,
      "unst": 2940,
      "isme": 2941,
      "Ġfunksjon": 2942,
      "ĠfÃ¸dt": 2943,
      "Ã¸rte": 2944,
      "Ġviste": 2945,
      "Ġlangs": 2946,
      "Ġutviklet": 2947,
      "Ġhjerte": 2948,
      "eliggenhet": 2949,
      "Fra": 2950,
      "ane": 2951,
      "ĠSy": 2952,
      "stein": 2953,
      "ĠMange": 2954,
      "Ġ2007": 2955,
      "kommen": 2956,
      "Ġsuper": 2957,
      "Ġfjor": 2958,
      "ben": 2959,
      "hel": 2960,
      "jet": 2961,
      "Ġlar": 2962,
      "ppet": 2963,
      "ĠBr": 2964,
      "ikasjon": 2965,
      "Ġefter": 2966,
      "199": 2967,
      "ius": 2968,
      "kar": 2969,
      "ders": 2970,
      "Ġsamlet": 2971,
      "ĠfÃ¸rte": 2972,
      "Ġfavor": 2973,
      "anen": 2974,
      "orld": 2975,
      "Ġmag": 2976,
      "Ġhopp": 2977,
      "Ġkil": 2978,
      "ittel": 2979,
      "ĠblÃ¥": 2980,
      "Ġbetale": 2981,
      "Ġelsker": 2982,
      "Ġbefolk": 2983,
      "Ġinternasjonale": 2984,
      "40": 2985,
      "ĠApp": 2986,
      "Ġ27": 2987,
      "Ġwh": 2988,
      "23": 2989,
      "ift": 2990,
      "lende": 2991,
      "vann": 2992,
      "illi": 2993,
      "âĢ¢": 2994,
      "ordet": 2995,
      "ĠhÃ¸yt": 2996,
      "Ġkjempe": 2997,
      "Ġperfekte": 2998,
      "Pro": 2999,
      "Ġsalg": 3000,
      "Ġfys": 3001,
      "Ã¸te": 3002,
      "Ġbibliote": 3003,
      "Ġskje": 3004,
      "ĠHvor": 3005,
      "Ġrelig": 3006,
      "ĠGr": 3007,
      "Ã¸nne": 3008,
      "âĢĿ.": 3009,
      "fte": 3010,
      "kant": 3011,
      "sa": 3012,
      "Ġuansett": 3013,
      "Ġstilling": 3014,
      "ĠCo": 3015,
      "organ": 3016,
      "Ġtime": 3017,
      "sol": 3018,
      "Ġfler": 3019,
      "Ġvitenskap": 3020,
      "lis": 3021,
      "Ġford": 3022,
      "isin": 3023,
      "aceb": 3024,
      "yskland": 3025,
      "kring": 3026,
      "stÃ¸": 3027,
      "ement": 3028,
      "ĠKar": 3029,
      "deles": 3030,
      "illa": 3031,
      "ologiske": 3032,
      "ĠDanmark": 3033,
      "mor": 3034,
      "Ġsterkt": 3035,
      "Ġlokal": 3036,
      "Ġdrift": 3037,
      "ĠKn": 3038,
      "annen": 3039,
      "utte": 3040,
      "abel": 3041,
      "ktige": 3042,
      "ĠhÃ¸yere": 3043,
      "ĠYork": 3044,
      "ĠFrank": 3045,
      "ringen": 3046,
      "ype": 3047,
      "Ġbud": 3048,
      "deren": 3049,
      "ĠtrÃ¥d": 3050,
      "Ġblom": 3051,
      "ĠOgsÃ¥": 3052,
      "Ġflott": 3053,
      "Ġpartner": 3054,
      "Ek": 3055,
      "eren": 3056,
      "Ġvenner": 3057,
      "Ġpublik": 3058,
      "Ġskip": 3059,
      "Ã¸nner": 3060,
      "ĠHerre": 3061,
      "Ġbygget": 3062,
      "Ġfungerer": 3063,
      "Un": 3064,
      "eth": 3065,
      "Ġdram": 3066,
      "ana": 3067,
      "Ġmon": 3068,
      "Ġhum": 3069,
      "Ġtilh": 3070,
      "Ġrev": 3071,
      "forsk": 3072,
      "ĠGo": 3073,
      "ime": 3074,
      "Ġhim": 3075,
      "Ġnr": 3076,
      "asjer": 3077,
      "Ġstil": 3078,
      "Ġeiendom": 3079,
      "Ġoversikt": 3080,
      "alis": 3081,
      "ĠsÃ¸ker": 3082,
      "Ved": 3083,
      "mm": 3084,
      "nere": 3085,
      "Ġvekt": 3086,
      "Ġpra": 3087,
      "Ġlange": 3088,
      "its": 3089,
      "Ġoppmer": 3090,
      "28": 3091,
      "Sam": 3092,
      "dal": 3093,
      "yen": 3094,
      "Ġstopp": 3095,
      "ettet": 3096,
      "Ġhelg": 3097,
      "rafikk": 3098,
      "Ġmobil": 3099,
      "ĠdrÃ¸m": 3100,
      "rest": 3101,
      "egÃ¥r": 3102,
      "former": 3103,
      "Ġmeng": 3104,
      "Ġkombin": 3105,
      "side": 3106,
      "Ġprest": 3107,
      "Ġproduksjon": 3108,
      "Ġhvilken": 3109,
      "Ġsendt": 3110,
      "ktÃ¸y": 3111,
      "ĠTo": 3112,
      "ĠPer": 3113,
      "Ġunna": 3114,
      "ettere": 3115,
      "Ġbrukte": 3116,
      "Ġskape": 3117,
      "Ġforretnings": 3118,
      "Ġfrom": 3119,
      "ara": 3120,
      "ash": 3121,
      "ander": 3122,
      "Ġresten": 3123,
      "Ġbevis": 3124,
      "yng": 3125,
      "oster": 3126,
      "stendig": 3127,
      "Ġbestemt": 3128,
      "27": 3129,
      "hvert": 3130,
      "Ġmi": 3131,
      "Ġtest": 3132,
      "Ġbu": 3133,
      "Ġskikk": 3134,
      "ĠFl": 3135,
      "Ġvelger": 3136,
      "Ġkvinn": 3137,
      "Ġkirken": 3138,
      "Ġsannsynlig": 3139,
      ",-": 3140,
      "05": 3141,
      "26": 3142,
      "felt": 3143,
      "kst": 3144,
      "Ġosv": 3145,
      "ish": 3146,
      "dere": 3147,
      "ologisk": 3148,
      "Ġforsvar": 3149,
      "program": 3150,
      "ĠmÃ¸ter": 3151,
      "Ġansatte": 3152,
      "orn": 3153,
      "Ġhygg": 3154,
      "isp": 3155,
      "ĠCl": 3156,
      "isjonen": 3157,
      "ĠUnder": 3158,
      "Ġimot": 3159,
      "Ġadminist": 3160,
      "Ġstyrke": 3161,
      "bur": 3162,
      "sagt": 3163,
      "enne": 3164,
      "ĠsÃ¸ndag": 3165,
      "skl": 3166,
      "Ġja": 3167,
      "Ġunivers": 3168,
      "beide": 3169,
      "iteten": 3170,
      "saker": 3171,
      "ĠfÃ¸ler": 3172,
      "ĠInternett": 3173,
      "ias": 3174,
      "out": 3175,
      "Ġmand": 3176,
      "verre": 3177,
      "ativer": 3178,
      "ĠHam": 3179,
      "Ġhvorfor": 3180,
      "Ġsammenheng": 3181,
      "Ġglede": 3182,
      "Ġfamilien": 3183,
      "ĠDavid": 3184,
      "pris": 3185,
      "inget": 3186,
      "ĠavgjÃ¸r": 3187,
      "Ġstri": 3188,
      "Ġkonst": 3189,
      "gjÃ¸re": 3190,
      "ĠNorsk": 3191,
      "plassen": 3192,
      "ĠIsrael": 3193,
      "Ġful": 3194,
      "resen": 3195,
      "lighet": 3196,
      "ĠHel": 3197,
      "Ã¸ya": 3198,
      "aktig": 3199,
      "holdt": 3200,
      "feranser": 3201,
      "Ġsat": 3202,
      "Ġerst": 3203,
      "ĠAm": 3204,
      "Ġhvit": 3205,
      "utvik": 3206,
      "arbeidet": 3207,
      "Ġtenker": 3208,
      "Ġautom": 3209,
      "Ġartikkelen": 3210,
      "full": 3211,
      "havn": 3212,
      "asin": 3213,
      "ĠHÃ¥": 3214,
      "Ġomkring": 3215,
      "Ġinns": 3216,
      "ĠVer": 3217,
      "Ġbehand": 3218,
      "osf": 3219,
      "ĠÃ¥rs": 3220,
      "Ġoffentlige": 3221,
      "Ġslags": 3222,
      "Ġident": 3223,
      "Ġtun": 3224,
      "omp": 3225,
      "Ġstund": 3226,
      "Ġvarme": 3227,
      "Ġcm": 3228,
      "Ġinternett": 3229,
      "Ġmedlemmer": 3230,
      "Ġpasient": 3231,
      "Ġhot": 3232,
      "ĠlÃ¦r": 3233,
      "Ġuav": 3234,
      "ĠMo": 3235,
      "Ġreserv": 3236,
      "Ġ195": 3237,
      "ĠDerfor": 3238,
      "Ġservice": 3239,
      "aste": 3240,
      "histor": 3241,
      "Ġdre": 3242,
      "orsdag": 3243,
      "ĠHistor": 3244,
      "ĠGj": 3245,
      "ĠJac": 3246,
      "Ġlager": 3247,
      "Ġ60": 3248,
      "Ġselskap": 3249,
      "ommun": 3250,
      "ĠprÃ¸v": 3251,
      "ĠEngland": 3252,
      "acebook": 3253,
      "Ġdo": 3254,
      "edde": 3255,
      "lex": 3256,
      "ĠHÃ¸y": 3257,
      "Ġrolle": 3258,
      "essig": 3259,
      "Ġflyttet": 3260,
      "stillinger": 3261,
      "fÃ¸lgelig": 3262,
      "29": 3263,
      "hund": 3264,
      "Ġalene": 3265,
      "deling": 3266,
      "byg": 3267,
      "www": 3268,
      "ĠParis": 3269,
      "Ġeurope": 3270,
      "ĠÂ§": 3271,
      "Ġfr": 3272,
      "Ġtu": 3273,
      "Ġkomfort": 3274,
      "ĠkjÃ¸re": 3275,
      "ĠslÃ¥": 3276,
      "Ġtilby": 3277,
      "ondon": 3278,
      "mens": 3279,
      "Ġing": 3280,
      "Ġtakk": 3281,
      "Ġglem": 3282,
      "Ġdebatt": 3283,
      "Ġellers": 3284,
      "jern": 3285,
      "Ġstolt": 3286,
      "KK": 3287,
      "Ġ;": 3288,
      "Ġvek": 3289,
      "rede": 3290,
      "ommer": 3291,
      "ĠfÃ¸rer": 3292,
      "Ġ193": 3293,
      "Ġsystem": 3294,
      "Ġklima": 3295,
      "Ġdata": 3296,
      "ĠmÃ¥neder": 3297,
      "Ġenergi": 3298,
      "rert": 3299,
      "Ġsal": 3300,
      "Ġslekt": 3301,
      "ilbud": 3302,
      "Ġbad": 3303,
      "idene": 3304,
      "Ġvarer": 3305,
      "visor": 3306,
      "ĠInter": 3307,
      "setning": 3308,
      "Ġvalgt": 3309,
      "kraft": 3310,
      "tra": 3311,
      "ande": 3312,
      "arder": 3313,
      "Ġkrev": 3314,
      "Ġkolle": 3315,
      "Ġul": 3316,
      "Ġsto": 3317,
      "ogle": 3318,
      "Ġinteress": 3319,
      "ĠomrÃ¥de": 3320,
      "Ġbolig": 3321,
      "ĠEller": 3322,
      "ses": 3323,
      "Ġas": 3324,
      "Ġpot": 3325,
      "asen": 3326,
      "ĠMin": 3327,
      "Ġarbeider": 3328,
      "Ġlengre": 3329,
      "Ġfredag": 3330,
      "Ġeldre": 3331,
      "Ġkob": 3332,
      "Ġtiltak": 3333,
      "Ġring": 3334,
      "ĠKl": 3335,
      "unnen": 3336,
      "Ġkrever": 3337,
      "Ġtrening": 3338,
      "08": 3339,
      "ĠhÃ¸st": 3340,
      "arn": 3341,
      "steder": 3342,
      "etten": 3343,
      "ĠkjÃ¦re": 3344,
      "ĠÃ¥rets": 3345,
      "Ġsterke": 3346,
      "ING": 3347,
      "aul": 3348,
      "âĻ": 3349,
      "Ġtvil": 3350,
      "Ã¸rs": 3351,
      "ffer": 3352,
      "ĠÃ¸kt": 3353,
      "Ġtydelig": 3354,
      "Ġmenneske": 3355,
      "âĻ¥": 3356,
      "45": 3357,
      "Ġforrige": 3358,
      "ĠLar": 3359,
      "Ġklare": 3360,
      "sterne": 3361,
      "Ġpoeng": 3362,
      "Ġviktige": 3363,
      "Ġselve": 3364,
      "Ġdesign": 3365,
      "fÃ¸res": 3366,
      "service": 3367,
      "ED": 3368,
      "ST": 3369,
      "ala": 3370,
      "olusjon": 3371,
      "Ġspor": 3372,
      "Ġlegg": 3373,
      "Ġtran": 3374,
      "Ġ2006": 3375,
      "ĠAnt": 3376,
      "Ġborger": 3377,
      "Ġkarakter": 3378,
      "Ġkroppen": 3379,
      "Ġindustri": 3380,
      "roller": 3381,
      "Ġ+": 3382,
      "Ã¸ke": 3383,
      "ĠifÃ¸lge": 3384,
      "olket": 3385,
      "ĠNett": 3386,
      "ĠÃ¸nske": 3387,
      "gaver": 3388,
      "Ġstarter": 3389,
      "Ġvakre": 3390,
      "Ġpublikum": 3391,
      "ain": 3392,
      "fest": 3393,
      "ania": 3394,
      "ĠsÃ¥k": 3395,
      "ssel": 3396,
      "ĠAlt": 3397,
      "Ġpolitisk": 3398,
      "Ġfarge": 3399,
      "Ġbegynn": 3400,
      "Ġforslag": 3401,
      "Ġnot": 3402,
      "ĠrÃ¸y": 3403,
      "Ġex": 3404,
      "ffe": 3405,
      "rives": 3406,
      "80": 3407,
      "ome": 3408,
      "ras": 3409,
      "Ġvist": 3410,
      "Ġ26": 3411,
      "ĠPC": 3412,
      "ssur": 3413,
      "ales": 3414,
      "Ġendre": 3415,
      "Ġenkle": 3416,
      "Ġvirker": 3417,
      "sjekking": 3418,
      "Ġpolitiet": 3419,
      "ational": 3420,
      "gene": 3421,
      "uc": 3422,
      "Ã¥p": 3423,
      "Ġhy": 3424,
      "ĠSm": 3425,
      "Ġspise": 3426,
      "ĠCon": 3427,
      "ogn": 3428,
      "ick": 3429,
      "ekter": 3430,
      "essor": 3431,
      "Ġsmak": 3432,
      "Ġyt": 3433,
      "Ġjobbe": 3434,
      "Ġnaturlig": 3435,
      "Ġretning": 3436,
      "ĠTrondheim": 3437,
      "90": 3438,
      "trykk": 3439,
      "elÃ¸p": 3440,
      "Ġbus": 3441,
      "ĠAS": 3442,
      "ĠTyskland": 3443,
      "ĠhÃ¸yre": 3444,
      "jenester": 3445,
      "Ġlenker": 3446,
      "Ġprivat": 3447,
      "gte": 3448,
      "sc": 3449,
      "Ġke": 3450,
      "Ġmerke": 3451,
      "Ġfinans": 3452,
      "Ġvises": 3453,
      "ĠnÃ¦rheten": 3454,
      "Ġtekst": 3455,
      "Ġsosiale": 3456,
      "agnus": 3457,
      "partementet": 3458,
      "inter": 3459,
      "ski": 3460,
      "Ġgav": 3461,
      "Ġtilsvar": 3462,
      "ĠCan": 3463,
      "Ġanled": 3464,
      "ĠmÃ¸tte": 3465,
      "rekk": 3466,
      "lim": 3467,
      "Ġjern": 3468,
      "ĠLondon": 3469,
      "Ġkunde": 3470,
      "ateg": 3471,
      "Ġsentra": 3472,
      "Ġengelsk": 3473,
      "iÃ¸r": 3474,
      "sene": 3475,
      "ĠAb": 3476,
      "ĠIt": 3477,
      "Ġklo": 3478,
      "Ġdelen": 3479,
      "Ġtyske": 3480,
      "Ġhenhold": 3481,
      "Ġbarna": 3482,
      "Ġtrygt": 3483,
      "Vel": 3484,
      "inister": 3485,
      "Ġtusen": 3486,
      "ĠpÃ¥vir": 3487,
      "spunktet": 3488,
      "somrÃ¥": 3489,
      "Ġrepresen": 3490,
      "Ġsommeren": 3491,
      "Ġpresident": 3492,
      "Ġnasjonal": 3493,
      "nÃ¥": 3494,
      "uell": 3495,
      "vi": 3496,
      "Ġsider": 3497,
      "Ġforeldre": 3498,
      "ĠlÃ¦rer": 3499,
      "rifter": 3500,
      "ĠTrip": 3501,
      "ksis": 3502,
      "jekt": 3503,
      "ĠundersÃ¸k": 3504,
      "ĠStat": 3505,
      "ction": 3506,
      "Ġbetydelig": 3507,
      "Ġ%": 3508,
      "Ġsatte": 3509,
      "ante": 3510,
      "illere": 3511,
      "Ġgjester": 3512,
      "Ġunng": 3513,
      "Ġbland": 3514,
      "able": 3515,
      "ĠgjÃ¸res": 3516,
      "meldelser": 3517,
      "Ġfullt": 3518,
      "Alle": 3519,
      "Ġfolke": 3520,
      "Mer": 3521,
      "Ġgutt": 3522,
      "Ġskam": 3523,
      "ĠrÃ¸d": 3524,
      "dagen": 3525,
      "Ġparkering": 3526,
      "Ġfilmen": 3527,
      "Ġhovedsak": 3528,
      "Ġboken": 3529,
      "Ġdistri": 3530,
      "leve": 3531,
      "Ġenhver": 3532,
      "sson": 3533,
      "Ġtreng": 3534,
      "astet": 3535,
      "Ġselvsagt": 3536,
      "Ġgleder": 3537,
      "Ġsuks": 3538,
      "ĠfornÃ¸yd": 3539,
      "ĠOlav": 3540,
      "Ġperioden": 3541,
      "aut": 3542,
      "Ġmass": 3543,
      "rus": 3544,
      "ennlig": 3545,
      "ica": 3546,
      "Ġforskjell": 3547,
      "Ġflotte": 3548,
      "ouse": 3549,
      "Ġindiv": 3550,
      "78": 3551,
      "ep": 3552,
      "folk": 3553,
      "usk": 3554,
      "skole": 3555,
      "nem": 3556,
      "Ġrefer": 3557,
      "Ġressur": 3558,
      "ĠBre": 3559,
      "appe": 3560,
      "har": 3561,
      "lÃ¸p": 3562,
      "Ġfien": 3563,
      "Ġvit": 3564,
      "Ġkommentar": 3565,
      "Ġkampfly": 3566,
      "Ġthat": 3567,
      "Ġfatt": 3568,
      "Ġtall": 3569,
      "enting": 3570,
      "Ġfortelle": 3571,
      "ifter": 3572,
      "rivil": 3573,
      "Ġmuligheter": 3574,
      "ĠÃĺst": 3575,
      "Ġjorden": 3576,
      "Ġutviklingen": 3577,
      "Ġstandard": 3578,
      ".Â»": 3579,
      "lÃ¥": 3580,
      "aner": 3581,
      "anlegg": 3582,
      "Ġhud": 3583,
      "Ġkrist": 3584,
      "ĠDersom": 3585,
      "Ġomfatt": 3586,
      "ementer": 3587,
      "Ġinntil": 3588,
      "person": 3589,
      "Ġendelig": 3590,
      "ĠBerlin": 3591,
      "Ġhistorien": 3592,
      "Ġmannen": 3593,
      "ĠnÃ¦rmere": 3594,
      "Advisor": 3595,
      "gere": 3596,
      "nende": 3597,
      "vest": 3598,
      "we": 3599,
      "enere": 3600,
      "Ġfyr": 3601,
      "ils": 3602,
      "onn": 3603,
      "ĠFin": 3604,
      "ĠKong": 3605,
      "irsdag": 3606,
      "ict": 3607,
      "Ġtoppen": 3608,
      "Ġbedrift": 3609,
      "Ġposisjon": 3610,
      ".\"": 3611,
      "mod": 3612,
      "sette": 3613,
      "ysten": 3614,
      "Ġ'": 3615,
      "Ġval": 3616,
      "ikler": 3617,
      "ĠStort": 3618,
      "smÃ¥let": 3619,
      "Ġ2005": 3620,
      "appen": 3621,
      "2006": 3622,
      "middel": 3623,
      "Ġamerikanske": 3624,
      "Ġfrokost": 3625,
      "fo": 3626,
      "fold": 3627,
      "ix": 3628,
      "Ġforfatter": 3629,
      "egge": 3630,
      "agelig": 3631,
      "ĠTe": 3632,
      "ĠprÃ¸ver": 3633,
      "Ġvideo": 3634,
      "ypt": 3635,
      "igh": 3636,
      "Ã¸rende": 3637,
      "ĠstrÃ¸m": 3638,
      "ola": 3639,
      "Ġdefin": 3640,
      "ĠMid": 3641,
      "utning": 3642,
      "spart": 3643,
      "Ġregn": 3644,
      "Ġmiddel": 3645,
      "Ġklarer": 3646,
      "03": 3647,
      "renn": 3648,
      "Ġdrep": 3649,
      "Ġbi": 3650,
      "Ġneg": 3651,
      "amma": 3652,
      "ĠTrom": 3653,
      "Ġ29": 3654,
      "itetet": 3655,
      "Ġforsv": 3656,
      "gift": 3657,
      "BN": 3658,
      "Ġbill": 3659,
      "Ġport": 3660,
      "Ġbekre": 3661,
      "Ġkonge": 3662,
      "jeneste": 3663,
      "Ġsender": 3664,
      "itekt": 3665,
      "Ġkompet": 3666,
      "Ġlitteratur": 3667,
      "Hvor": 3668,
      "Ġva": 3669,
      "assert": 3670,
      "ames": 3671,
      "Ġoverra": 3672,
      "Ġdaglig": 3673,
      "ĠsjÃ¸": 3674,
      "Ġprosjektet": 3675,
      "09": 3676,
      "rans": 3677,
      "za": 3678,
      "ĠÃ¥tte": 3679,
      "Ġvare": 3680,
      "Ġnyte": 3681,
      "Ġettersom": 3682,
      "peratur": 3683,
      "iserte": 3684,
      "Ġfremst": 3685,
      "Ġvirksomhet": 3686,
      "Ġskjedde": 3687,
      "Ġbesl": 3688,
      "Ġmidler": 3689,
      "Ġjule": 3690,
      "Ġkonkurran": 3691,
      "Ġvenstre": 3692,
      "07": 3693,
      "55": 3694,
      "nor": 3695,
      "port": 3696,
      "rende": 3697,
      "stoff": 3698,
      "Ġkirk": 3699,
      "skrig": 3700,
      "Ġnab": 3701,
      "ĠVel": 3702,
      "aktiv": 3703,
      "indre": 3704,
      "Ġmuligheten": 3705,
      "Ġteater": 3706,
      "amera": 3707,
      "Ġkonsekv": 3708,
      "Ġsalt": 3709,
      "Ġdobb": 3710,
      "Ã¸rene": 3711,
      "ada": 3712,
      "Ġplasser": 3713,
      "own": 3714,
      "Ġrabatt": 3715,
      "orges": 3716,
      ".|": 3717,
      "bord": 3718,
      "enfor": 3719,
      "Ġstuder": 3720,
      "Ġreiser": 3721,
      "iskop": 3722,
      "Ġsnakke": 3723,
      "Ġartikkel": 3724,
      "Norge": 3725,
      "Ġdatamaskinen": 3726,
      "Ġfavoritt": 3727,
      "byr": 3728,
      "virk": 3729,
      "Ġ>": 3730,
      "sken": 3731,
      "aland": 3732,
      "enten": 3733,
      "ĠKj": 3734,
      "Ġleve": 3735,
      "ower": 3736,
      "Ġtyper": 3737,
      "trent": 3738,
      "IG": 3739,
      "sal": 3740,
      "taler": 3741,
      "Ġtj": 3742,
      "Ġdeilig": 3743,
      "ĠNo": 3744,
      "Ġgjeng": 3745,
      "ĠKina": 3746,
      "ĠGu": 3747,
      "Ġoverfor": 3748,
      "elvis": 3749,
      "jerne": 3750,
      "Ġkalles": 3751,
      "Ġkampen": 3752,
      "Ha": 3753,
      "ĠhÃ¸rer": 3754,
      "liv": 3755,
      "Ġutfor": 3756,
      "Ġmente": 3757,
      "orden": 3758,
      "Ġweb": 3759,
      "fÃ¸rte": 3760,
      "ĠÃ¥pnet": 3761,
      "vÃ¦rende": 3762,
      "kohol": 3763,
      "Ġbegynnelsen": 3764,
      "AL": 3765,
      "lÃ¸": 3766,
      "ĠhÃ¦r": 3767,
      "Ġamb": 3768,
      "ĠMart": 3769,
      "itte": 3770,
      "ĠEd": 3771,
      "slam": 3772,
      "Ġeksister": 3773,
      "ĠÃ¥pne": 3774,
      "Ġborte": 3775,
      "Ġinspir": 3776,
      "Ġutgangspunkt": 3777,
      "FÃ¸r": 3778,
      "ple": 3779,
      "ura": 3780,
      "ved": 3781,
      "Ã¥de": 3782,
      "Ġdele": 3783,
      "Ġtitt": 3784,
      "Ġbos": 3785,
      "Ġur": 3786,
      "istiske": 3787,
      "ssy": 3788,
      "beh": 3789,
      "iserer": 3790,
      "Ġinterv": 3791,
      "Ġsamfunnet": 3792,
      "ruktur": 3793,
      "Ġperfekt": 3794,
      "06": 3795,
      "IT": 3796,
      "han": 3797,
      "Ġx": 3798,
      "informasjon": 3799,
      "reiser": 3800,
      "serte": 3801,
      "ĠJa": 3802,
      "Ġovernatt": 3803,
      "ynt": 3804,
      "Ġsnakker": 3805,
      "Ġvanlige": 3806,
      "Ġoppdrag": 3807,
      "Ġsesong": 3808,
      "Ġregjering": 3809,
      "fi": 3810,
      "lÃ¸st": 3811,
      "ukt": 3812,
      "skolen": 3813,
      "Ġlot": 3814,
      "itu": 3815,
      "ĠOG": 3816,
      "Ġsek": 3817,
      "Ġslo": 3818,
      "klubb": 3819,
      "2005": 3820,
      "ĠArbeid": 3821,
      "Ġerfaring": 3822,
      "ipp": 3823,
      "Ġfelt": 3824,
      "ĠFred": 3825,
      "isten": 3826,
      "Ġunnt": 3827,
      "Ġserver": 3828,
      "Ġsammenlig": 3829,
      "ĠÃ¸konomiske": 3830,
      "Ġbetydning": 3831,
      "Reg": 3832,
      "gar": 3833,
      "mulig": 3834,
      "stin": 3835,
      "Ã¸kt": 3836,
      "Ġbrit": 3837,
      "edag": 3838,
      "olon": 3839,
      "ĠMagnus": 3840,
      "Ġinnom": 3841,
      "istisk": 3842,
      "abil": 3843,
      "Ġdemokrat": 3844,
      "ĠbrÃ¸d": 3845,
      "ĠÃ¸yeb": 3846,
      "kommende": 3847,
      "04": 3848,
      "mÃ¥": 3849,
      "su": 3850,
      "Ġstam": 3851,
      "ĠEU": 3852,
      "ĠJo": 3853,
      "ĠklÃ¦r": 3854,
      "Ġrettfer": 3855,
      "2012": 3856,
      "ĠUniversity": 3857,
      "ĠISBN": 3858,
      "Ġhensyn": 3859,
      "37": 3860,
      "cy": 3861,
      "hjel": 3862,
      "nte": 3863,
      "Ġhttp": 3864,
      "Ġneder": 3865,
      "ida": 3866,
      "Ġopprettet": 3867,
      "ĠNy": 3868,
      "Ġderimot": 3869,
      "sminister": 3870,
      "gangen": 3871,
      "ĠstÃ¸rrelse": 3872,
      "sjekt": 3873,
      "Ġfarger": 3874,
      "Ġinteresse": 3875,
      "aksjon": 3876,
      "iel": 3877,
      "jert": 3878,
      "vesen": 3879,
      "ykke": 3880,
      "ĠbÃ¸ker": 3881,
      "amen": 3882,
      "ita": 3883,
      "ĠRob": 3884,
      "anten": 3885,
      "behandling": 3886,
      "Ġ2000": 3887,
      "alia": 3888,
      "Ġrepresent": 3889,
      "Ġinkluderer": 3890,
      "ĠÃ¸konomisk": 3891,
      "Ġgruppe": 3892,
      "omrÃ¥det": 3893,
      "Kan": 3894,
      "OL": 3895,
      "aver": 3896,
      "fjord": 3897,
      "gn": 3898,
      "talen": 3899,
      "Ġeld": 3900,
      "insi": 3901,
      "Ġhave": 3902,
      "kkelig": 3903,
      "Ġtype": 3904,
      "bladet": 3905,
      "Ġklarte": 3906,
      "Ġytterligere": 3907,
      "Ġpraksis": 3908,
      "Kon": 3909,
      "OM": 3910,
      "cu": 3911,
      "ya": 3912,
      "Ġhodet": 3913,
      "Ġtett": 3914,
      "ĠMor": 3915,
      "Ã¸lv": 3916,
      "ĠselvfÃ¸lgelig": 3917,
      "ritann": 3918,
      "Ġoffisi": 3919,
      "Ġangrep": 3920,
      "Ġdrikke": 3921,
      "ID": 3922,
      "Mar": 3923,
      "kor": 3924,
      "mÃ¥l": 3925,
      "Ġ||": 3926,
      "Ġaks": 3927,
      "esjon": 3928,
      "olv": 3929,
      "Ġjev": 3930,
      "Ġinng": 3931,
      "rets": 3932,
      "Ġaktivitet": 3933,
      "Ġstyre": 3934,
      "Ġfortsetter": 3935,
      "Ġskyld": 3936,
      "Ġindivid": 3937,
      "mot": 3938,
      "uk": 3939,
      "Ġref": 3940,
      "ĠFre": 3941,
      "asjonene": 3942,
      "irken": 3943,
      "ĠÃ¸ke": 3944,
      "ĠGuds": 3945,
      "Ġbereg": 3946,
      "Ġfotball": 3947,
      "Ġfolket": 3948,
      "Ġrisik": 3949,
      "Be": 3950,
      "rÃ¸y": 3951,
      "svis": 3952,
      "sberg": 3953,
      "Ġdatter": 3954,
      "Ã¸ver": 3955,
      "Ġbod": 3956,
      "Ġmedisin": 3957,
      "Ġstod": 3958,
      "Ġskade": 3959,
      "Ġopptatt": 3960,
      "digheter": 3961,
      "apt": 3962,
      "spiller": 3963,
      "delsen": 3964,
      "Ġ500": 3965,
      "Ġpersonlig": 3966,
      "Ġ80": 3967,
      "nader": 3968,
      "email": 3969,
      "parten": 3970,
      "Kj": 3971,
      "Ġbal": 3972,
      "Ġpri": 3973,
      "Ġforut": 3974,
      "ĠgrÃ¥": 3975,
      "ĠlÃ¸nn": 3976,
      "ama": 3977,
      "stemer": 3978,
      "allen": 3979,
      "essverre": 3980,
      "Ġturen": 3981,
      "Ġbestemte": 3982,
      "Ġgreit": 3983,
      "Ġabsol": 3984,
      "Ġhyggelig": 3985,
      "ĠTripAdvisor": 3986,
      "oper": 3987,
      "sider": 3988,
      "vene": 3989,
      "Ġsem": 3990,
      "Ġkred": 3991,
      "ĠSve": 3992,
      "atri": 3993,
      "Ġomtrent": 3994,
      "Ġkongen": 3995,
      "Ġleser": 3996,
      "Ġregler": 3997,
      "ĠIngen": 3998,
      "ĠSki": 3999,
      "standen": 4000,
      "Ġdelta": 4001,
      "stillingen": 4002,
      "Ġprogrammet": 4003,
      "33": 4004,
      "Selv": 4005,
      "TV": 4006,
      "Ġmaskin": 4007,
      "eland": 4008,
      "Ġtilkn": 4009,
      "ĠSl": 4010,
      "ĠSv": 4011,
      "Ġutover": 4012,
      "ĠAg": 4013,
      "merket": 4014,
      "Ġkonser": 4015,
      "Ġkunder": 4016,
      "varer": 4017,
      "Ġekst": 4018,
      "Ġvirke": 4019,
      "Ġfunksjoner": 4020,
      "Ġansvarlig": 4021,
      "Ġidrett": 4022,
      "Ġkraftig": 4023,
      "Ġstarte": 4024,
      "PS": 4025,
      "mus": 4026,
      "mester": 4027,
      "mosf": 4028,
      "ranger": 4029,
      "Ġdanske": 4030,
      "Ġalder": 4031,
      "ĠFacebook": 4032,
      "ĠPort": 4033,
      "ogg": 4034,
      "ĠmÃ¥ter": 4035,
      "ĠforhÃ¥nd": 4036,
      "Ġsentrale": 4037,
      "65": 4038,
      "And": 4039,
      "bed": 4040,
      "fang": 4041,
      "Ġir": 4042,
      "Ġvarier": 4043,
      "ĠFil": 4044,
      "Ġspilte": 4045,
      "ĠWorld": 4046,
      "ions": 4047,
      "Ġinneb": 4048,
      "Ġkurs": 4049,
      "Ġgjestene": 4050,
      "beg": 4051,
      "nene": 4052,
      "sav": 4053,
      "eri": 4054,
      "Ġsov": 4055,
      "Ġslikt": 4056,
      "orien": 4057,
      "inar": 4058,
      "Ġtab": 4059,
      "ĠbÃ¦re": 4060,
      "Ġgro": 4061,
      "Ġenor": 4062,
      "Ġalkohol": 4063,
      "osh": 4064,
      "delen": 4065,
      "Ġbyens": 4066,
      "kjente": 4067,
      "lagg": 4068,
      "ĠAltern": 4069,
      "bane": 4070,
      "espÃ¸r": 4071,
      "Ġfortsette": 4072,
      "Ġbarneh": 4073,
      "Ġalternativ": 4074,
      "ĠFrankrike": 4075,
      "Ġsuksess": 4076,
      "che": 4077,
      "ĠsÃ¦r": 4078,
      "Ġfalt": 4079,
      "Ġaf": 4080,
      "ĠAlex": 4081,
      "ĠPe": 4082,
      "ĠWh": 4083,
      "Ġaner": 4084,
      "kjÃ¸p": 4085,
      "Ġflytte": 4086,
      "brudd": 4087,
      "saken": 4088,
      "Ġsosial": 4089,
      "mennene": 4090,
      "119": 4091,
      "vand": 4092,
      "dem": 4093,
      "Ġlettere": 4094,
      "ĠUl": 4095,
      "Ġplassert": 4096,
      "Ġankom": 4097,
      "Ġhelgen": 4098,
      "Ġutvikle": 4099,
      "Ġfranske": 4100,
      "tall": 4101,
      "ismen": 4102,
      "ĠSa": 4103,
      "Ġjenter": 4104,
      "ĠLin": 4105,
      "ĠOL": 4106,
      "jef": 4107,
      "lands": 4108,
      "Ġnettet": 4109,
      "Ġendringer": 4110,
      "Ã¦rlighet": 4111,
      "ografi": 4112,
      "Ġhundre": 4113,
      "Under": 4114,
      "AS": 4115,
      "bibliote": 4116,
      "ua": 4117,
      "vok": 4118,
      "Ġfas": 4119,
      "Ġfang": 4120,
      "iler": 4121,
      "ilsen": 4122,
      "Ġbeliggenhet": 4123,
      "Ġpu": 4124,
      "ĠBro": 4125,
      "ĠVil": 4126,
      "ĠGre": 4127,
      "Ġseier": 4128,
      "ĠWi": 4129,
      "rette": 4130,
      "ressen": 4131,
      "Ġkvinne": 4132,
      "Ġbilen": 4133,
      "rering": 4134,
      "ĠkjÃ¸pte": 4135,
      "polit": 4136,
      "lÃ¸sning": 4137,
      "bon": 4138,
      "vist": 4139,
      "Ġfrukt": 4140,
      "elighet": 4141,
      "spor": 4142,
      "ulerer": 4143,
      "Innhold": 4144,
      "ĠunngÃ¥": 4145,
      "Ġelv": 4146,
      "stname": 4147,
      "Ġalbum": 4148,
      "yret": 4149,
      "ollen": 4150,
      "Ġjourn": 4151,
      "Ġvalgte": 4152,
      "Ġutvid": 4153,
      "Ġjobbet": 4154,
      "utselig": 4155,
      "vÃ¥pen": 4156,
      "bel": 4157,
      "Ġseng": 4158,
      "Ġoc": 4159,
      "litt": 4160,
      "igur": 4161,
      "versjon": 4162,
      "ney": 4163,
      "ĠMad": 4164,
      "ĠBru": 4165,
      "Ġoppst": 4166,
      "ĠJan": 4167,
      "Ġminne": 4168,
      "ĠgrÃ¸nn": 4169,
      "ĠennÃ¥": 4170,
      "Ġpress": 4171,
      "ĠKanskje": 4172,
      "lastname": 4173,
      "Ġsvenske": 4174,
      "Ġskikkelig": 4175,
      ".-": 4176,
      "sens": 4177,
      "Ġpol": 4178,
      "Ġnummer": 4179,
      "Ġdep": 4180,
      "aden": 4181,
      "okol": 4182,
      "ĠGl": 4183,
      "Ġtids": 4184,
      "ĠÃ¸ver": 4185,
      "slaget": 4186,
      "melding": 4187,
      "Ġelektron": 4188,
      "Ġomfattende": 4189,
      "uen": 4190,
      "Ġprem": 4191,
      "lipp": 4192,
      "sept": 4193,
      "Ġspis": 4194,
      "ĠLille": 4195,
      "ĠCity": 4196,
      "veis": 4197,
      "Ġradi": 4198,
      "ĠsnÃ¸": 4199,
      "Ġbeskri": 4200,
      "ĠSamtidig": 4201,
      "Ġtilfeller": 4202,
      "Ġgrupper": 4203,
      "Ġenerg": 4204,
      "--------": 4205,
      ".,": 4206,
      "Th": 4207,
      "jeg": 4208,
      "Ġment": 4209,
      "Ġhal": 4210,
      "Ġbyr": 4211,
      "edning": 4212,
      "skaff": 4213,
      "Ġni": 4214,
      "ĠnÃ¸": 4215,
      "Ġlodd": 4216,
      "verd": 4217,
      "ĠTid": 4218,
      "asjons": 4219,
      "asjonal": 4220,
      "ĠJu": 4221,
      "Ġwe": 4222,
      "ĠHerrens": 4223,
      "ĠBerg": 4224,
      "Ġruss": 4225,
      "ĠÃ¸ya": 4226,
      "Ġmarkedet": 4227,
      "ritannia": 4228,
      "99": 4229,
      "ming": 4230,
      "pene": 4231,
      "Ġfeng": 4232,
      "eler": 4233,
      "Ġvente": 4234,
      "Ġkateg": 4235,
      "ktÃ¸r": 4236,
      "Ġopplysninger": 4237,
      "emmelig": 4238,
      "ĠJon": 4239,
      "varet": 4240,
      "jÃ¸en": 4241,
      "Ġmiddag": 4242,
      "ĠHotels": 4243,
      "ĠlÃ¸sning": 4244,
      "ĠlÃ¸sninger": 4245,
      "Ġkropp": 4246,
      "Ġreservasjon": 4247,
      "hi": 4248,
      "tene": 4249,
      "Ġrygg": 4250,
      "ĠErik": 4251,
      "Ã¸nster": 4252,
      "alif": 4253,
      "alien": 4254,
      "Ġ187": 4255,
      "ifte": 4256,
      "Ġtjeneste": 4257,
      "Ġpriser": 4258,
      "ĠEgypt": 4259,
      "Norges": 4260,
      "bred": 4261,
      "kamp": 4262,
      "Ġsiv": 4263,
      "Ġsenter": 4264,
      "Ġtips": 4265,
      "legger": 4266,
      "ĠforespÃ¸r": 4267,
      "andid": 4268,
      "ĠhÃ¸ye": 4269,
      "Ġlavere": 4270,
      "Ġsukker": 4271,
      "Ġtenkt": 4272,
      "EST": 4273,
      "Ġprivate": 4274,
      "Ġattra": 4275,
      "ĠGoogle": 4276,
      "Hei": 4277,
      "Ġfart": 4278,
      "Ġventer": 4279,
      "Ġsport": 4280,
      "ynast": 4281,
      "Ġfrisk": 4282,
      "ikkerhet": 4283,
      "boks": 4284,
      "Ġskaper": 4285,
      "Ġkrigen": 4286,
      "Ġsvarte": 4287,
      "69": 4288,
      "http": 4289,
      "lant": 4290,
      "Ġill": 4291,
      "Ġfrivil": 4292,
      "elden": 4293,
      "str": 4294,
      "Ġves": 4295,
      "amper": 4296,
      "atning": 4297,
      "Ġski": 4298,
      "foren": 4299,
      "digvis": 4300,
      "Ġspred": 4301,
      "Ġhvite": 4302,
      "ĠfÃ¸rt": 4303,
      "Ã¸nt": 4304,
      "Ġsex": 4305,
      "Ġorig": 4306,
      "Ġ70": 4307,
      "Ġbrann": 4308,
      "Ġdisku": 4309,
      "Ġsesongen": 4310,
      "Ġfransk": 4311,
      "Ġdokumen": 4312,
      "CD": 4313,
      "fÃ¸dt": 4314,
      "Ġpaa": 4315,
      "Ġavtale": 4316,
      "Ġlun": 4317,
      "Ġfortell": 4318,
      "Ġlands": 4319,
      "Ġgjennomsnitt": 4320,
      "Ġbarnet": 4321,
      "Ġbegynne": 4322,
      "ĠlÃ¸se": 4323,
      "Ġvanligvis": 4324,
      "Ġautomatisk": 4325,
      "Ġkeiser": 4326,
      "ux": 4327,
      "Ġstrand": 4328,
      "ĠMot": 4329,
      "ĠTw": 4330,
      "ĠÃ¥rhund": 4331,
      "ĠArt": 4332,
      "Ġhotellets": 4333,
      "ĠpopulÃ¦re": 4334,
      "ĠChristian": 4335,
      "Ġtilsvarende": 4336,
      "AV": 4337,
      "ora": 4338,
      "Ã¸tt": 4339,
      "Ġgrader": 4340,
      "igen": 4341,
      "entral": 4342,
      "ĠVar": 4343,
      "Ġtider": 4344,
      "Ġregion": 4345,
      "Ġmilliarder": 4346,
      "barn": 4347,
      "Ġuttrykk": 4348,
      "ĠExpl": 4349,
      "Ġregjeringen": 4350,
      "89": 4351,
      "Der": 4352,
      "irasjon": 4353,
      "ller": 4354,
      "vn": 4355,
      "Ġso": 4356,
      "Ġdessuten": 4357,
      "Ġmm": 4358,
      "Ġkop": 4359,
      "Ġpapir": 4360,
      "ĠSiden": 4361,
      "Ġutn": 4362,
      "Ġvarm": 4363,
      "Ġoppe": 4364,
      "Ġoppf": 4365,
      "Ġgjeld": 4366,
      "emark": 4367,
      "ĠVG": 4368,
      "Ġoverfl": 4369,
      "Ġarranger": 4370,
      "Ġbrukere": 4371,
      "system": 4372,
      "2007": 4373,
      "Ġdeltak": 4374,
      "Ġjobben": 4375,
      "Ġpresse": 4376,
      "ĠHotellet": 4377,
      "KT": 4378,
      "UT": 4379,
      "imer": 4380,
      "Ġed": 4381,
      "ena": 4382,
      "ommet": 4383,
      "lir": 4384,
      "Ġumiddel": 4385,
      "Ġrek": 4386,
      "ĠBook": 4387,
      "ĠTer": 4388,
      "gjort": 4389,
      "illet": 4390,
      "ĠStud": 4391,
      "Ġhjert": 4392,
      "Ġfremdeles": 4393,
      "risen": 4394,
      "posten": 4395,
      "Ġdigit": 4396,
      "Ġsitte": 4397,
      "Ġinvi": 4398,
      "Ġstraff": 4399,
      "alisering": 4400,
      "Eksterne": 4401,
      "Ġabsolutt": 4402,
      "ĠÃ¦re": 4403,
      "Ġbro": 4404,
      "Ġbord": 4405,
      "Ġforeld": 4406,
      "unkter": 4407,
      "ĠSyn": 4408,
      "ĠJes": 4409,
      "rÃ¥det": 4410,
      "Ġrike": 4411,
      "Ġklikk": 4412,
      "Ġverdenskrig": 4413,
      "Ġkostnad": 4414,
      "Ġforklar": 4415,
      "Ġtanke": 4416,
      "Ġvekst": 4417,
      "67": 4418,
      "EG": 4419,
      "rland": 4420,
      "skriv": 4421,
      "Ġfores": 4422,
      "ĠÃ¥nd": 4423,
      "itar": 4424,
      "urte": 4425,
      "oth": 4426,
      "Ġry": 4427,
      "Ġgjer": 4428,
      "Ġmening": 4429,
      "ĠPo": 4430,
      "ĠOver": 4431,
      "irke": 4432,
      "ĠkjÃ¸rer": 4433,
      "innhold": 4434,
      "Ġnylig": 4435,
      "ĠInst": 4436,
      "Ġformid": 4437,
      "Ġonsdag": 4438,
      "Ġtrenings": 4439,
      "Ġfrykt": 4440,
      "Ġpraktisk": 4441,
      "49": 4442,
      "nummer": 4443,
      "Ġsve": 4444,
      "Ġopt": 4445,
      "Ġhyl": 4446,
      "akte": 4447,
      "undet": 4448,
      "Ġ300": 4449,
      "Ġfremtid": 4450,
      "Ġverdt": 4451,
      "Ġselskapet": 4452,
      "Ġproblemet": 4453,
      "Ġaksep": 4454,
      "illiam": 4455,
      "ĠinnebÃ¦rer": 4456,
      "lede": 4457,
      "strÃ¸m": 4458,
      "omer": 4459,
      "sky": 4460,
      "ĠDessuten": 4461,
      "ĠAc": 4462,
      "ĠKv": 4463,
      "ikro": 4464,
      "Ġles": 4465,
      "skapene": 4466,
      "klÃ¦r": 4467,
      "Ġrettigheter": 4468,
      "Ġspesialt": 4469,
      "ations": 4470,
      "minister": 4471,
      "Ġbidrar": 4472,
      "Ġaktiviteter": 4473,
      "Ġresultat": 4474,
      "Ġtillatt": 4475,
      "Ġoppdatert": 4476,
      "Ja": 4477,
      "Ny": 4478,
      "bert": 4479,
      "bry": 4480,
      "delt": 4481,
      "Ġ?": 4482,
      "Ġdit": 4483,
      "departementet": 4484,
      "Ġoppt": 4485,
      "ikring": 4486,
      "Ġglob": 4487,
      "Ġkorre": 4488,
      "Ġthis": 4489,
      "ĠBjÃ¸rnson": 4490,
      "Ġmistet": 4491,
      "bra": 4492,
      "fun": 4493,
      "ios": 4494,
      "ze": 4495,
      "ansert": 4496,
      "Ġvinner": 4497,
      "lia": 4498,
      "Ġgud": 4499,
      "alk": 4500,
      "Ġavhengig": 4501,
      "asitet": 4502,
      "ĠSlik": 4503,
      "Ġopprett": 4504,
      "Ġoppleve": 4505,
      "ussland": 4506,
      "ĠKom": 4507,
      "ogra": 4508,
      "ĠgjennomfÃ¸rt": 4509,
      "Ġrad": 4510,
      "Ġbestilling": 4511,
      "Ġdeltok": 4512,
      "Ġkarri": 4513,
      "Ġperiode": 4514,
      "Ġvindu": 4515,
      "Ġnormalt": 4516,
      "47": 4517,
      "MS": 4518,
      "Ã¥re": 4519,
      "Ġhentet": 4520,
      "Ġtri": 4521,
      "ĠiP": 4522,
      "legge": 4523,
      "igheten": 4524,
      "Ġledet": 4525,
      "idere": 4526,
      "Ġug": 4527,
      "ĠSan": 4528,
      "Ġdens": 4529,
      "ĠAfrika": 4530,
      "ĠVI": 4531,
      "ical": 4532,
      "Ã¸kene": 4533,
      "ringene": 4534,
      "Ġviss": 4535,
      "Ġglass": 4536,
      "Ġpolitikk": 4537,
      "Ġlaste": 4538,
      "Ġ90": 4539,
      "adem": 4540,
      "ause": 4541,
      "Ġbeskj": 4542,
      "Ġdriver": 4543,
      "Ġtotalt": 4544,
      "Ġhoteller": 4545,
      "ĠsÃ¥kalte": 4546,
      "31": 4547,
      "Fi": 4548,
      "fart": 4549,
      "punkt": 4550,
      "vent": 4551,
      "Ġsign": 4552,
      "Ġfan": 4553,
      "Ġmaler": 4554,
      "Ã¸g": 4555,
      "Ġforand": 4556,
      "test": 4557,
      "tekt": 4558,
      "Ġent": 4559,
      "alet": 4560,
      "Ġlo": 4561,
      "Ġlover": 4562,
      "ĠMy": 4563,
      "entarer": 4564,
      "itler": 4565,
      "ĠGrand": 4566,
      "Ġlege": 4567,
      "ĠslÃ¥tt": 4568,
      "Ġverdi": 4569,
      "Ġlandets": 4570,
      "Ġ2003": 4571,
      "siktig": 4572,
      "yttelse": 4573,
      "Ġdesig": 4574,
      "Ġarkiv": 4575,
      "havet": 4576,
      "Ġbegrenset": 4577,
      "Ġeldste": 4578,
      "Gj": 4579,
      "bÃ¸ker": 4580,
      "kÃ¥r": 4581,
      "vs": 4582,
      "ĠhÃ¥r": 4583,
      "Ġbom": 4584,
      "rey": 4585,
      "alsk": 4586,
      "isa": 4587,
      "nep": 4588,
      "ĠTom": 4589,
      "ĠGro": 4590,
      "veien": 4591,
      "slin": 4592,
      "Ġkvelden": 4593,
      "Ġmuse": 4594,
      "ialet": 4595,
      "Ġresultater": 4596,
      "Ġnevnt": 4597,
      "ĠExp": 4598,
      "Ġrelativt": 4599,
      "fag": 4600,
      "pas": 4601,
      "satte": 4602,
      "ino": 4603,
      "Ġmamma": 4604,
      "Ġtorsdag": 4605,
      "skip": 4606,
      "ĠgÃ¸y": 4607,
      "Ã¸ring": 4608,
      "ĠSand": 4609,
      "atiske": 4610,
      "ĠAs": 4611,
      "ĠIsland": 4612,
      "forhold": 4613,
      "delingen": 4614,
      "ĠStav": 4615,
      "skerne": 4616,
      "Ġdemon": 4617,
      "Ġsvart": 4618,
      "olid": 4619,
      "Ġfantastiske": 4620,
      "Ġvoksne": 4621,
      "Ġkristne": 4622,
      "Ġdobbelt": 4623,
      "Over": 4624,
      "RA": 4625,
      "Tid": 4626,
      "iets": 4627,
      "krig": 4628,
      "eten": 4629,
      "alene": 4630,
      "risk": 4631,
      "ĠMe": 4632,
      "oget": 4633,
      "Ġ2001": 4634,
      "Ġrommene": 4635,
      "Ġtrolig": 4636,
      "Ġspesiell": 4637,
      "useum": 4638,
      "Ġinteressant": 4639,
      "Klikk": 4640,
      "kkene": 4641,
      "Ġup": 4642,
      "asjen": 4643,
      "ament": 4644,
      "ated": 4645,
      "ĠFinn": 4646,
      "ĠGar": 4647,
      "somme": 4648,
      "Ġstaten": 4649,
      "ĠmilitÃ¦r": 4650,
      "God": 4651,
      "Ġsmer": 4652,
      "Ġlens": 4653,
      "ĠMag": 4654,
      "ĠBy": 4655,
      "ĠGod": 4656,
      "ics": 4657,
      "Ġanaly": 4658,
      "rerte": 4659,
      "handler": 4660,
      "Ġflyplassen": 4661,
      "Ġinvol": 4662,
      "Ġnatten": 4663,
      "Ġutdanning": 4664,
      "sut": 4665,
      "Ġdog": 4666,
      "inen": 4667,
      "Ġislam": 4668,
      "Ġvask": 4669,
      "Ġkund": 4670,
      "Ġkines": 4671,
      "Ġpeng": 4672,
      "itasjon": 4673,
      "ĠFer": 4674,
      "ĠFlere": 4675,
      "ĠEm": 4676,
      "osisjon": 4677,
      "Ġdagene": 4678,
      "Ġplutselig": 4679,
      "Ġanmeldelser": 4680,
      "Ġ2004": 4681,
      "Ġaktuelle": 4682,
      "valit": 4683,
      "ourn": 4684,
      "dighetene": 4685,
      "omrÃ¥der": 4686,
      "Ġmarker": 4687,
      "Ġanbefaler": 4688,
      "ĠhÃ¸sten": 4689,
      "Ġlegem": 4690,
      "ĠAlternativer": 4691,
      "Ġspesialtilbud": 4692,
      "68": 4693,
      "aus": 4694,
      "britannia": 4695,
      "alm": 4696,
      "atin": 4697,
      "ĠutgjÃ¸r": 4698,
      "ĠTr": 4699,
      "peri": 4700,
      "Ġlignende": 4701,
      "ustri": 4702,
      "Ġhandel": 4703,
      "asseng": 4704,
      "!!!": 4705,
      "Ġtrykk": 4706,
      "Ġkoster": 4707,
      "Ġmangler": 4708,
      "Ġkoselig": 4709,
      "Ġrevolusjon": 4710,
      "ĠStortinget": 4711,
      "95": 4712,
      "iell": 4713,
      "rel": 4714,
      "Ġjakt": 4715,
      "ĠHv": 4716,
      "forsvar": 4717,
      "ĠCar": 4718,
      "Ġnyhet": 4719,
      "Ġmotstand": 4720,
      "plasser": 4721,
      "elset": 4722,
      "Ġtrekke": 4723,
      "Ġrimelig": 4724,
      "Ġfritid": 4725,
      "basert": 4726,
      "Ġspesif": 4727,
      "organis": 4728,
      "Ġmandag": 4729,
      "Ġingenting": 4730,
      "Ġanledning": 4731,
      "ĠExplorer": 4732,
      "Noen": 4733,
      "Ġdriv": 4734,
      "ĠtÃ¥": 4735,
      "Ġforek": 4736,
      "Ġstr": 4737,
      "Ġskul": 4738,
      "Ġatmosf": 4739,
      "iven": 4740,
      "Ã¸nder": 4741,
      "Ġgrunnlegg": 4742,
      "Ġfullstendig": 4743,
      "Ġdiskusjon": 4744,
      "Ġbutikk": 4745,
      "Ġetablert": 4746,
      "Ġdetaljer": 4747,
      "Klem": 4748,
      "UN": 4749,
      "aur": 4750,
      "bÃ¥": 4751,
      "hjem": 4752,
      "nÃ¦r": 4753,
      "que": 4754,
      "Ġbrev": 4755,
      "Ġgen": 4756,
      "Ġutsatt": 4757,
      "ningsm": 4758,
      "ĠBen": 4759,
      "ĠPaul": 4760,
      "ĠJe": 4761,
      "utd": 4762,
      "Ġtrygg": 4763,
      "Ġ188": 4764,
      "Ġsnakket": 4765,
      "Ġendret": 4766,
      "Ġgrunnlag": 4767,
      "ĠnÃ¦rings": 4768,
      "systemet": 4769,
      "Ġspesielle": 4770,
      "Ġ:-)": 4771,
      "ĠDermed": 4772,
      "ĠThor": 4773,
      "Ġkunstner": 4774,
      "Ġarkitekt": 4775,
      "Ġtanker": 4776,
      "Ġbredt": 4777,
      "benhavn": 4778,
      "burg": 4779,
      "Ġrabattene": 4780,
      "34": 4781,
      "hÃ¸y": 4782,
      "iens": 4783,
      "nsker": 4784,
      "ĠdÃ¸m": 4785,
      "Ġtegn": 4786,
      "Ġuken": 4787,
      "ĠHvordan": 4788,
      "ikkel": 4789,
      "Ġspilt": 4790,
      "ĠCam": 4791,
      "Ġbek": 4792,
      "spros": 4793,
      "Ġplate": 4794,
      "atert": 4795,
      "act": 4796,
      "Ġretten": 4797,
      "sfri": 4798,
      "Ġforklarer": 4799,
      "ĠnÃ¸yaktig": 4800,
      "Ġopprinnelig": 4801,
      "Ġforretningsreiser": 4802,
      "Ġeuropeiske": 4803,
      "Ġbodde": 4804,
      "okolade": 4805,
      "Ġspesialtilbudene": 4806,
      "Hvordan": 4807,
      "LO": 4808,
      "giver": 4809,
      "pal": 4810,
      "ano": 4811,
      "Ġstrid": 4812,
      "ition": 4813,
      "Ġryd": 4814,
      "Ġkommen": 4815,
      "Ġsamle": 4816,
      "vend": 4817,
      "Ġnedenfor": 4818,
      "Ġligge": 4819,
      "Ġstats": 4820,
      "Ġkaller": 4821,
      "Ġinstitusjon": 4822,
      "Ġforny": 4823,
      "omrÃ¥de": 4824,
      "Ġstemmer": 4825,
      "Ġunntak": 4826,
      "39": 4827,
      "64": 4828,
      "SE": 4829,
      "lÃ¸se": 4830,
      "nett": 4831,
      "ance": 4832,
      "orier": 4833,
      "Ġtale": 4834,
      "stru": 4835,
      "Ġbon": 4836,
      "resten": 4837,
      "skont": 4838,
      "ese": 4839,
      "Ġsamling": 4840,
      "ĠWe": 4841,
      "Ġ35": 4842,
      "Ġserien": 4843,
      "Ġsyv": 4844,
      "alisert": 4845,
      "Ġ185": 4846,
      "Ġpresen": 4847,
      "Ġevne": 4848,
      "Ġledd": 4849,
      "Ġprogrammer": 4850,
      "Ġstrateg": 4851,
      "ialist": 4852,
      "Ġtransport": 4853,
      "Ġekstrem": 4854,
      "Ch": 4855,
      "VÃ¥r": 4856,
      "ai": 4857,
      "oter": 4858,
      "Ġ<": 4859,
      "enen": 4860,
      "Ġsinn": 4861,
      "Ġkolon": 4862,
      "ometer": 4863,
      "esser": 4864,
      "Ġlanser": 4865,
      "Ġrent": 4866,
      "ĠFar": 4867,
      "ĠKont": 4868,
      "abri": 4869,
      "Ġverk": 4870,
      "Ġ31": 4871,
      "Ġwww": 4872,
      "ĠhÃ¸yde": 4873,
      "Ġ08": 4874,
      "Ġtenkte": 4875,
      "Ġprosess": 4876,
      "Ġbenyttet": 4877,
      "Ġprisen": 4878,
      "ĠJohann": 4879,
      "Ġgenerelt": 4880,
      "Ġskuesp": 4881,
      "**": 4882,
      "41": 4883,
      "RE": 4884,
      "RO": 4885,
      "kron": 4886,
      "wn": 4887,
      "eres": 4888,
      "inert": 4889,
      "stede": 4890,
      "Ã¸benhavn": 4891,
      "Ġerob": 4892,
      "Ġmedier": 4893,
      "itutt": 4894,
      "annet": 4895,
      "Ġbytte": 4896,
      "retter": 4897,
      "âĢĿ,": 4898,
      "Ġenklere": 4899,
      "ibel": 4900,
      "Ġtysk": 4901,
      "198": 4902,
      "ravel": 4903,
      "Ġnordmenn": 4904,
      "Ġfjerne": 4905,
      "Ġsykehus": 4906,
      "Ġforbedre": 4907,
      "Ġoppmerksom": 4908,
      "Ġlegges": 4909,
      "ĠTromsÃ¸": 4910,
      "bÃ¦r": 4911,
      "uri": 4912,
      "Ġeder": 4913,
      "ĠâĻ¥": 4914,
      "Ġdial": 4915,
      "Ġfi": 4916,
      "orene": 4917,
      "Ġtilpass": 4918,
      "Ġnei": 4919,
      "bevar": 4920,
      "iew": 4921,
      "Ġherlig": 4922,
      "essige": 4923,
      "Ġkontin": 4924,
      "Ġnettverk": 4925,
      "Ġvinne": 4926,
      "Ġinstaller": 4927,
      "Ġgjenopp": 4928,
      "Ġutgitt": 4929,
      "Ġeffektiv": 4930,
      "skriften": 4931,
      "ĠKristian": 4932,
      "Ġengas": 4933,
      "bit": 4934,
      "fjell": 4935,
      "ira": 4936,
      "Ã³": 4937,
      "Ġyr": 4938,
      "Ã¥Ã¥": 4939,
      "Ġass": 4940,
      "Ġvert": 4941,
      "Ġkaffe": 4942,
      "alske": 4943,
      "rop": 4944,
      "ĠLang": 4945,
      "ĠVÃ¥r": 4946,
      "osp": 4947,
      "Ġgrun": 4948,
      "Ġkommunikasjon": 4949,
      "Ġmateriale": 4950,
      "Ġfulgte": 4951,
      "Ġdrept": 4952,
      "Ġkreditt": 4953,
      "Ġorigin": 4954,
      "Le": 4955,
      "hÃ¥nd": 4956,
      "mand": 4957,
      "Ġ...": 4958,
      "Ġdessverre": 4959,
      "Ġple": 4960,
      "Ġgu": 4961,
      "egÃ¥ende": 4962,
      "ĠstrÃ¥": 4963,
      "ĠHim": 4964,
      "Ġrele": 4965,
      "Ġunn": 4966,
      "aktÃ¸r": 4967,
      "Ġsvare": 4968,
      "feranse": 4969,
      "Ġendte": 4970,
      "ĠAll": 4971,
      "Ġbedrifter": 4972,
      "Ġveil": 4973,
      "Ġfritt": 4974,
      "Ġstudenter": 4975,
      "ĠfÃ¸le": 4976,
      "skrifter": 4977,
      "Ġhavet": 4978,
      "sprogram": 4979,
      "ĠRobert": 4980,
      "ĠSkiforbund": 4981,
      "32": 4982,
      "36": 4983,
      "38": 4984,
      "borg": 4985,
      "rol": 4986,
      "ilj": 4987,
      "Ġvon": 4988,
      "veren": 4989,
      "ktiv": 4990,
      "olde": 4991,
      "ĠBu": 4992,
      "send": 4993,
      "bevis": 4994,
      "Ġtrener": 4995,
      "engt": 4996,
      "ĠForsvar": 4997,
      "Ġkontroller": 4998,
      "ĠsvÃ¸mme": 4999,
      "byen": 5000,
      "Ġpreget": 5001,
      "Ġvannet": 5002,
      "Ġledende": 5003,
      "Ġutfordringer": 5004,
      "Ġprofessor": 5005,
      "Referanser": 5006,
      "ĠInternet": 5007,
      "Ġ)": 5008,
      "Ġemail": 5009,
      "Ġforven": 5010,
      "ony": 5011,
      "ato": 5012,
      "ĠHell": 5013,
      "jekk": 5014,
      "astighet": 5015,
      "ĠspÃ¸rsmÃ¥let": 5016,
      "Ġitalien": 5017,
      "Ġklubben": 5018,
      "Ġrestaurant": 5019,
      "Ġuavhengig": 5020,
      "ĠJacob": 5021,
      "48": 5022,
      "Pl": 5023,
      "kast": 5024,
      "ty": 5025,
      "ĠvÃ¦": 5026,
      "Ġvell": 5027,
      "Ġforf": 5028,
      "Ġforen": 5029,
      "Ġenhet": 5030,
      "Ġskog": 5031,
      "enta": 5032,
      "ited": 5033,
      "oker": 5034,
      "Ġarg": 5035,
      "Ġvelkommen": 5036,
      "arken": 5037,
      "Ġ2002": 5038,
      "Ġklim": 5039,
      "ĠSpania": 5040,
      "ĠstÃ¸tter": 5041,
      "Ġhvilket": 5042,
      "Ġelever": 5043,
      "Ġtilfred": 5044,
      "Ġbidrag": 5045,
      "Ġskyte": 5046,
      "Ġsituasjonen": 5047,
      "Ġbefolkningen": 5048,
      "Ġreligi": 5049,
      "Ġpotens": 5050,
      "bler": 5051,
      "kvar": 5052,
      "sopp": 5053,
      "srett": 5054,
      "Ġsold": 5055,
      "Ġdelvis": 5056,
      "Ġfug": 5057,
      "Ã¸vere": 5058,
      "ona": 5059,
      "rich": 5060,
      "Ġindre": 5061,
      "Ġskaffe": 5062,
      "ĠIN": 5063,
      "ĠLund": 5064,
      "iret": 5065,
      "Ġmerket": 5066,
      "opping": 5067,
      "ĠkjÃ¸tt": 5068,
      "2014": 5069,
      "Ġalvorlig": 5070,
      "Ġkompetanse": 5071,
      "Ġgrunnleggende": 5072,
      "Afrika": 5073,
      "Post": 5074,
      "hard": 5075,
      "erledes": 5076,
      "Ġhenger": 5077,
      "stol": 5078,
      "Ġidag": 5079,
      "Ġam": 5080,
      "Ġufor": 5081,
      "roid": 5082,
      "ĠFort": 5083,
      "akes": 5084,
      "ĠCol": 5085,
      "Ġminutt": 5086,
      "Ġetterhvert": 5087,
      "ĠWar": 5088,
      "ĠslÃ¥r": 5089,
      "ĠverktÃ¸y": 5090,
      "Ġordet": 5091,
      "arkivet": 5092,
      "Ġ45": 5093,
      "Ġforbud": 5094,
      "ĠbesÃ¸ke": 5095,
      "Ġmidten": 5096,
      "Ġhovedstad": 5097,
      "partiet": 5098,
      "flyt": 5099,
      "Ġbygd": 5100,
      "meldinger": 5101,
      "Ġtemperatur": 5102,
      "Ġgaran": 5103,
      "Ġinnholdet": 5104,
      "Ġoppdaget": 5105,
      "Ġbritiske": 5106,
      "Man": 5107,
      "OS": 5108,
      "To": 5109,
      "US": 5110,
      "Vis": 5111,
      "fen": 5112,
      "hen": 5113,
      "melt": 5114,
      "navn": 5115,
      "Ġz": 5116,
      "Ġhend": 5117,
      "ĠhÃ¸rt": 5118,
      "Ġts": 5119,
      "omen": 5120,
      "leg": 5121,
      "ĠSn": 5122,
      "ĠMc": 5123,
      "iti": 5124,
      "Ġvarmt": 5125,
      "ĠPress": 5126,
      "ellene": 5127,
      "ĠkjÃ¸nn": 5128,
      "Ġegg": 5129,
      "Ġhverdag": 5130,
      "jenesten": 5131,
      "Ġvisste": 5132,
      "Ġprinsi": 5133,
      "Ġtilgjengelige": 5134,
      "ĠÃ¸konomi": 5135,
      "Ġfortsatte": 5136,
      "Ġregistrert": 5137,
      "Ġtotal": 5138,
      "ĠIndia": 5139,
      "ĠApple": 5140,
      "ĠavgjÃ¸rende": 5141,
      "75": 5142,
      "Histor": 5143,
      "jul": 5144,
      "sorg": 5145,
      "vart": 5146,
      "ĠsÃ¥r": 5147,
      "Ġsur": 5148,
      "Ġsub": 5149,
      "Ġprim": 5150,
      "Ġstress": 5151,
      "ĠBare": 5152,
      "ĠLand": 5153,
      "ansvar": 5154,
      "ĠWik": 5155,
      "deler": 5156,
      "ienter": 5157,
      "ugh": 5158,
      "ĠfÃ¸lelse": 5159,
      "Ġvirksom": 5160,
      "ĠnÃ¦rme": 5161,
      "Ġhandling": 5162,
      "Ġhistoriske": 5163,
      "Ġleverand": 5164,
      "banen": 5165,
      "Ġnasjonale": 5166,
      "Ġinspirasjon": 5167,
      "Ġredusere": 5168,
      "Ġsjelden": 5169,
      "Ġbekym": 5170,
      "66": 5171,
      "Hun": 5172,
      "IV": 5173,
      "Vil": 5174,
      "ĠsÃ¸lv": 5175,
      "inke": 5176,
      "ĠtÃ¸": 5177,
      "omas": 5178,
      "Ġformer": 5179,
      "Ġgra": 5180,
      "Ġsko": 5181,
      "Ġskatt": 5182,
      "ika": 5183,
      "ĠJer": 5184,
      "Ġcan": 5185,
      "bered": 5186,
      "Ġregnes": 5187,
      "ĠhÃ¸yeste": 5188,
      "appa": 5189,
      "sjektet": 5190,
      "ĠkjÃ¸per": 5191,
      "Ã¶r": 5192,
      "splass": 5193,
      "ĠStavanger": 5194,
      "ear": 5195,
      "kob": 5196,
      "Ġqu": 5197,
      "Ġss": 5198,
      "Ġsove": 5199,
      "ĠfÃ¸d": 5200,
      "orte": 5201,
      "stat": 5202,
      "Ġhardt": 5203,
      "Ġrekl": 5204,
      "ĠNasjonal": 5205,
      "jeringen": 5206,
      "imes": 5207,
      "ĠSkal": 5208,
      "Ġvekk": 5209,
      "askiner": 5210,
      "Ġnordlige": 5211,
      "Ġsupp": 5212,
      "Ġvalget": 5213,
      "Ġartikler": 5214,
      "Ġsaker": 5215,
      "Ġprogramvare": 5216,
      "Ġinvester": 5217,
      "Ġoperativ": 5218,
      "ĠStorbritannia": 5219,
      "Ġlevende": 5220,
      "Ġ;)": 5221,
      "elÃ¸pig": 5222,
      "ĠMartin": 5223,
      "Or": 5224,
      "ians": 5225,
      "lÃ¦ring": 5226,
      "Ġoch": 5227,
      "ilje": 5228,
      "Ġkilder": 5229,
      "skudd": 5230,
      "Ġnav": 5231,
      "ĠHal": 5232,
      "angen": 5233,
      "Ã¥ringen": 5234,
      "adresse": 5235,
      "ĠFN": 5236,
      "ĠFr": 5237,
      "sprÃ¥k": 5238,
      "Ġlest": 5239,
      "chen": 5240,
      "Ġanlegg": 5241,
      "ratulerer": 5242,
      "Ġhellige": 5243,
      "Ġpersonlige": 5244,
      "Ġhender": 5245,
      "Ġferd": 5246,
      "Ġtrodde": 5247,
      "ĠÃ¸kte": 5248,
      "Ġplaner": 5249,
      "Ġboka": 5250,
      "Ġtelefonen": 5251,
      "Ġblomster": 5252,
      "Ġintervju": 5253,
      "Andre": 5254,
      "Slik": 5255,
      "ous": 5256,
      "Ã¡": 5257,
      "Ġfiske": 5258,
      "Ġour": 5259,
      "Ġhet": 5260,
      "stasjon": 5261,
      "stilt": 5262,
      "Ã¸t": 5263,
      "Ġgis": 5264,
      "Ġjente": 5265,
      "Ġutmerket": 5266,
      "Ġ1000": 5267,
      "Ġomgiv": 5268,
      "ĠBil": 5269,
      "Ġopplys": 5270,
      "ĠKr": 5271,
      "ĠKÃ¸benhavn": 5272,
      "ikerne": 5273,
      "ĠLitt": 5274,
      "ĠOla": 5275,
      "ĠRed": 5276,
      "orth": 5277,
      "Ġnydelig": 5278,
      "Ġvedkommende": 5279,
      "landske": 5280,
      "Ġsykkel": 5281,
      "Ġromer": 5282,
      "Ġsyns": 5283,
      "Ġkommende": 5284,
      "2008": 5285,
      "box": 5286,
      "Ġtilfelle": 5287,
      "Ġsolgt": 5288,
      "budet": 5289,
      "Ġstein": 5290,
      "Ġsendes": 5291,
      "Ġbenyttes": 5292,
      "44": 5293,
      "Ġka": 5294,
      "Ġkra": 5295,
      "Ġkamera": 5296,
      "Ġpakke": 5297,
      "leks": 5298,
      "skjer": 5299,
      "rog": 5300,
      "Ġvari": 5301,
      "ĠoppnÃ¥": 5302,
      "ĠRussland": 5303,
      "ffet": 5304,
      "Ġlegen": 5305,
      "Ġunderstre": 5306,
      "ĠWilliam": 5307,
      "klusjon": 5308,
      "rense": 5309,
      "ĠAnders": 5310,
      "Ġboks": 5311,
      "iem": 5312,
      "Ġdrar": 5313,
      "Ġfru": 5314,
      "Ġfaller": 5315,
      "anke": 5316,
      "rek": 5317,
      "ammer": 5318,
      "ria": 5319,
      "atelse": 5320,
      "Ġskol": 5321,
      "Ġskrift": 5322,
      "ĠBÃ¥de": 5323,
      "Ġoppford": 5324,
      "Ġinnvand": 5325,
      "serien": 5326,
      "Ã¸yene": 5327,
      "ffen": 5328,
      "Ġleie": 5329,
      "ĠUS": 5330,
      "Ġslaver": 5331,
      "fÃ¸ringen": 5332,
      "Ġvisst": 5333,
      "ommene": 5334,
      "Ġskapt": 5335,
      "ublisert": 5336,
      "merika": 5337,
      "Ġsentralt": 5338,
      "ukk": 5339,
      "Ġyng": 5340,
      "Ġmikro": 5341,
      "arbeide": 5342,
      "stud": 5343,
      "Ġbiskop": 5344,
      "verdig": 5345,
      "nek": 5346,
      "ĠSem": 5347,
      "Ġskille": 5348,
      "Ġskriv": 5349,
      "ella": 5350,
      "ĠVÃ¦r": 5351,
      "osof": 5352,
      "ĠkjÃ¦rlighet": 5353,
      "sleder": 5354,
      "elvet": 5355,
      "Ġmotor": 5356,
      "Ġregionen": 5357,
      "Ġwas": 5358,
      "holm": 5359,
      "Ġfotograf": 5360,
      "Ġprosjekter": 5361,
      "Ġstemme": 5362,
      "Ġoverrask": 5363,
      "42": 5364,
      "Ikke": 5365,
      "gÃ¥": 5366,
      "ielle": 5367,
      "pel": 5368,
      "uel": 5369,
      "ĠtÃ¥r": 5370,
      "leser": 5371,
      "rak": 5372,
      "Ġskader": 5373,
      "Ġetc": 5374,
      "Ġopplever": 5375,
      "ĠFri": 5376,
      "Ġspiser": 5377,
      "Ġspillere": 5378,
      "ĠLars": 5379,
      "ĠsÃ¥ledes": 5380,
      "Ġkjenne": 5381,
      "ĠWest": 5382,
      "ekn": 5383,
      "Ġregnet": 5384,
      "Ġannerledes": 5385,
      "Ġorden": 5386,
      "ront": 5387,
      "Ġ189": 5388,
      "ates": 5389,
      "Ġforsknings": 5390,
      "Ġhente": 5391,
      "Ġutvikler": 5392,
      "shus": 5393,
      "Ġhandle": 5394,
      "Ġselge": 5395,
      "hael": 5396,
      "Ġdrive": 5397,
      "sgiver": 5398,
      "Ġslaget": 5399,
      "urtig": 5400,
      "Ġillust": 5401,
      "Par": 5402,
      "hv": 5403,
      "ound": 5404,
      "yer": 5405,
      "Ġsof": 5406,
      "Ġoven": 5407,
      "Ġtirsdag": 5408,
      "reis": 5409,
      "teres": 5410,
      "ĠutfÃ¸rt": 5411,
      "ĠKarl": 5412,
      "ĠPeter": 5413,
      "ĠLike": 5414,
      "ĠLuft": 5415,
      "beveg": 5416,
      "innen": 5417,
      "Ġarbeide": 5418,
      "Ġfortalte": 5419,
      "Ġbetaler": 5420,
      "kjenn": 5421,
      "Ġsvanger": 5422,
      "Ġsnakk": 5423,
      "Ġkommentarer": 5424,
      "Ġyour": 5425,
      "funnet": 5426,
      "Ġlevere": 5427,
      "pool": 5428,
      "Ġfjern": 5429,
      "byggere": 5430,
      "Ġeventuelle": 5431,
      "Ġskyldes": 5432,
      "Ġfysisk": 5433,
      "ĠCount": 5434,
      "On": 5435,
      "do": 5436,
      "fir": 5437,
      "nok": 5438,
      "Ġsover": 5439,
      "Ġflagg": 5440,
      "Ġmult": 5441,
      "Ġtas": 5442,
      "tekn": 5443,
      "iddel": 5444,
      "Ġstiller": 5445,
      "Ġskad": 5446,
      "Ã¦led": 5447,
      "ĠAir": 5448,
      "ĠAften": 5449,
      "ush": 5450,
      "yrk": 5451,
      "Ġvedlike": 5452,
      "rÃ¥ket": 5453,
      "ĠUten": 5454,
      "ience": 5455,
      "opper": 5456,
      "Ġrik": 5457,
      "Ġstudent": 5458,
      "Ġdikt": 5459,
      "Ġgeneral": 5460,
      "Ġteknologi": 5461,
      "blemer": 5462,
      "Ġbevisst": 5463,
      "Ġidentif": 5464,
      "ĠLarvik": 5465,
      "biblioteket": 5466,
      "KE": 5467,
      "ful": 5468,
      "prÃ¸": 5469,
      "Ġtann": 5470,
      "sto": 5471,
      "onne": 5472,
      "rapp": 5473,
      "verks": 5474,
      "Ġhard": 5475,
      "Ġomfatter": 5476,
      "oten": 5477,
      "ĠEnd": 5478,
      "Ġliste": 5479,
      "ellet": 5480,
      "istene": 5481,
      "ĠAnne": 5482,
      "ĠomrÃ¥dene": 5483,
      "ĠÃ¥pner": 5484,
      "Ġinstru": 5485,
      "Ġterror": 5486,
      "mannen": 5487,
      "Ġinteressert": 5488,
      "ĠItalia": 5489,
      "Ġumiddelbart": 5490,
      "Mange": 5491,
      "OT": 5492,
      "melen": 5493,
      "messig": 5494,
      "ool": 5495,
      "Ã¨": 5496,
      "Ġfrist": 5497,
      "inav": 5498,
      "elemark": 5499,
      "Ġbre": 5500,
      "Ġbag": 5501,
      "reet": 5502,
      "onen": 5503,
      "tek": 5504,
      "ppene": 5505,
      "ĠLeg": 5506,
      "antene": 5507,
      "Ġleilig": 5508,
      "rykket": 5509,
      "Ġmotiv": 5510,
      "smÃ¥": 5511,
      "Ġreguler": 5512,
      "Ġkvalif": 5513,
      "Ġ1800": 5514,
      "bygger": 5515,
      "apper": 5516,
      "ĠSkype": 5517,
      "pros": 5518,
      "inerte": 5519,
      "Ġfantas": 5520,
      "ĠÃ¸yene": 5521,
      "Ġforholdet": 5522,
      "sammen": 5523,
      "bygging": 5524,
      "Ġopplevelse": 5525,
      "Ġsendte": 5526,
      "Ġoppholdet": 5527,
      "ĠServ": 5528,
      "ĠnÃ¦rmest": 5529,
      "Ġsituasjon": 5530,
      "Ġnormal": 5531,
      "dens": 5532,
      "runn": 5533,
      "yre": 5534,
      "Ġdisp": 5535,
      "Ġbade": 5536,
      "riske": 5537,
      "angel": 5538,
      "Ġrespekt": 5539,
      "ĠAker": 5540,
      "ĠBruk": 5541,
      "ĠId": 5542,
      "emer": 5543,
      "Ġplu": 5544,
      "cher": 5545,
      "likter": 5546,
      "2002": 5547,
      "ĠâĢĶ": 5548,
      "Ġfjernet": 5549,
      "Art": 5550,
      "Ġprofesjon": 5551,
      "Ġmarkeds": 5552,
      "ĠHvorfor": 5553,
      "Ġrepresenterer": 5554,
      "-,": 5555,
      "TB": 5556,
      "mede": 5557,
      "Ġfaste": 5558,
      "eles": 5559,
      "litter": 5560,
      "Ġinteg": 5561,
      "iket": 5562,
      "apan": 5563,
      "ĠVis": 5564,
      "ĠGratis": 5565,
      "sloven": 5566,
      "Ġklat": 5567,
      "Ġklasse": 5568,
      "opplev": 5569,
      "arkiv": 5570,
      "Ġfremover": 5571,
      "rÃ¸t": 5572,
      "kjem": 5573,
      "Ġnettstedet": 5574,
      "Ġvirk": 5575,
      "Ġskjedd": 5576,
      "fÃ¸lger": 5577,
      "ĠUniversitetet": 5578,
      "nevnte": 5579,
      "Ġbibliotek": 5580,
      "Ġklokken": 5581,
      "Ġressurser": 5582,
      "ĠBreiv": 5583,
      "Ġmiddelal": 5584,
      "ĠFredrik": 5585,
      "ĠÃ¸yeblikk": 5586,
      "AM": 5587,
      "brett": 5588,
      "henger": 5589,
      "lass": 5590,
      "ned": 5591,
      "uter": 5592,
      "anc": 5593,
      "ini": 5594,
      "Ġmisk": 5595,
      "eline": 5596,
      "Ġhode": 5597,
      "Ġtrafikk": 5598,
      "ary": 5599,
      "Ġbakken": 5600,
      "lie": 5601,
      "Ġforp": 5602,
      "aser": 5603,
      "ĠDes": 5604,
      "ĠHu": 5605,
      "Ġreiste": 5606,
      "urs": 5607,
      "ĠVM": 5608,
      "ĠGi": 5609,
      "ĠRy": 5610,
      "Ġunike": 5611,
      "menter": 5612,
      "ĠUN": 5613,
      "ĠNorske": 5614,
      "Ġpersonopp": 5615,
      "Ġmore": 5616,
      "stÃ¥ende": 5617,
      "Ġsikrer": 5618,
      "ikeren": 5619,
      "Ġbutikken": 5620,
      "sepsjon": 5621,
      "Ġdokument": 5622,
      "Ġkonsent": 5623,
      "Ġsvensk": 5624,
      "Ġfirstname": 5625,
      "ĠQu": 5626,
      "Ġreligion": 5627,
      "ĠBooking": 5628,
      "Ġdialog": 5629,
      "Dersom": 5630,
      "LE": 5631,
      "blem": 5632,
      "fast": 5633,
      "gitt": 5634,
      "Ġfu": 5635,
      "Ġmalt": 5636,
      "Ġpil": 5637,
      "edre": 5638,
      "skar": 5639,
      "Ġgru": 5640,
      "Ġtilstre": 5641,
      "ammen": 5642,
      "Ġjub": 5643,
      "Ġutsli": 5644,
      "ĠOn": 5645,
      "Ġtyp": 5646,
      "Ġspesial": 5647,
      "Ġonline": 5648,
      "Ã¤r": 5649,
      "Ġorganisasjoner": 5650,
      "Ġoppmerksomhet": 5651,
      "utvikling": 5652,
      "Ġmiskunn": 5653,
      "Hotell": 5654,
      "II": 5655,
      "Ġsats": 5656,
      "ĠdÃ¸r": 5657,
      "stet": 5658,
      "ĠbÃ¦rer": 5659,
      "Ġgyl": 5660,
      "una": 5661,
      "Ġumulig": 5662,
      "andinav": 5663,
      "liggende": 5664,
      "entre": 5665,
      "Ġoppfyl": 5666,
      "ĠGer": 5667,
      "Ġgren": 5668,
      "ĠgjennomfÃ¸re": 5669,
      "duksjon": 5670,
      "ĠÃ¸ker": 5671,
      "Ġveier": 5672,
      "ĠformÃ¥l": 5673,
      "Ġklikke": 5674,
      "ĠÃ¥pent": 5675,
      "Ġstudier": 5676,
      "Ġkreft": 5677,
      "Ġsettes": 5678,
      "Ġoperasjon": 5679,
      "Ġvurdere": 5680,
      "Ġetablerte": 5681,
      "Ġkrimin": 5682,
      "ĠMidt": 5683,
      "46": 5684,
      "Kont": 5685,
      "ba": 5686,
      "bi": 5687,
      "famil": 5688,
      "gÃ¥ende": 5689,
      "oo": 5690,
      "Ġ00": 5691,
      "Ġtaler": 5692,
      "Ġband": 5693,
      "Ġpale": 5694,
      "vers": 5695,
      "Ġopptil": 5696,
      "ĠIb": 5697,
      "ĠEk": 5698,
      "ĠinnrÃ¸m": 5699,
      "Ġspre": 5700,
      "ssjef": 5701,
      "lyst": 5702,
      "Â»-": 5703,
      "ĠnÃ¥vÃ¦rende": 5704,
      "ksjonene": 5705,
      "Ġforskere": 5706,
      "Ġgift": 5707,
      "Ġinformasjonskap": 5708,
      "Ġfungere": 5709,
      "Ġredd": 5710,
      "Ġbestemm": 5711,
      "Ġutgangspunktet": 5712,
      "Ġhovedsakelig": 5713,
      "Ġtjener": 5714,
      "ĠforespÃ¸rsel": 5715,
      "70": 5716,
      "71": 5717,
      "nivÃ¥": 5718,
      "rinn": 5719,
      "vne": 5720,
      "enge": 5721,
      "Ġmunn": 5722,
      "Ġbandet": 5723,
      "Ġvisse": 5724,
      "Ġvakker": 5725,
      "ĠforegÃ¥r": 5726,
      "ĠlÃ¸y": 5727,
      "Ġutsikt": 5728,
      "Ġresp": 5729,
      "ĠBor": 5730,
      "ĠBra": 5731,
      "Ġoppgaver": 5732,
      "Ġlive": 5733,
      "ĠCarl": 5734,
      "Ġprofil": 5735,
      "Ã¸nsberg": 5736,
      "Ġarv": 5737,
      "ĠStore": 5738,
      "vendig": 5739,
      "Ġlykke": 5740,
      "ĠvÃ¥ren": 5741,
      "Ġ09": 5742,
      "ĠÃĺy": 5743,
      "Ġskjerm": 5744,
      "2010": 5745,
      "Ġslipper": 5746,
      "ĠsÃ¸knad": 5747,
      "stÃ¸tte": 5748,
      "Ġbeskriver": 5749,
      "Ġhjertet": 5750,
      "At": 5751,
      "Disse": 5752,
      "fulle": 5753,
      "ii": 5754,
      "jeld": 5755,
      "ward": 5756,
      "Ġmo": 5757,
      "Ġhom": 5758,
      "Ġkull": 5759,
      "edes": 5760,
      "skyl": 5761,
      "ĠDel": 5762,
      "Ġdef": 5763,
      "ensene": 5764,
      "ksp": 5765,
      "Ġblev": 5766,
      "ĠovervÃ¥": 5767,
      "ĠRa": 5768,
      "ynam": 5769,
      "Ġ1900": 5770,
      "Ġgodkjent": 5771,
      "Ġsjokolade": 5772,
      "ĠskjÃ¸nn": 5773,
      "ĠJohan": 5774,
      "Ġresultatet": 5775,
      "ĠHaug": 5776,
      "Ġtradisjonelle": 5777,
      "Ġsjekke": 5778,
      "Ġinnsats": 5779,
      "ĠCanada": 5780,
      "Ġkonkurranse": 5781,
      "Ġvesentlig": 5782,
      "88": 5783,
      "kr": 5784,
      "mater": 5785,
      "ari": 5786,
      "Ġutel": 5787,
      "ĠMus": 5788,
      "ĠhjÃ¸r": 5789,
      "Ġanskaff": 5790,
      "Ġfremtiden": 5791,
      "iverse": 5792,
      "ĠinteriÃ¸r": 5793,
      "Ġrolig": 5794,
      "Ġ1990": 5795,
      "ĠkjÃ¸pes": 5796,
      "Ġoppgrader": 5797,
      "sÃ¸ke": 5798,
      "ĠGeoff": 5799,
      "Ġlinje": 5800,
      "Ġepis": 5801,
      "ĠJesus": 5802,
      "FF": 5803,
      "Res": 5804,
      "my": 5805,
      "relser": 5806,
      "talt": 5807,
      "Ġfare": 5808,
      "elsk": 5809,
      "Ġhind": 5810,
      "iland": 5811,
      "Ġkok": 5812,
      "omme": 5813,
      "Ġnest": 5814,
      "Ġuly": 5815,
      "ĠHver": 5816,
      "ĠBod": 5817,
      "formen": 5818,
      "ĠEi": 5819,
      "veks": 5820,
      "Ġarab": 5821,
      "aby": 5822,
      "altning": 5823,
      "ruppe": 5824,
      "Ġevig": 5825,
      "Ingen": 5826,
      "Ġbeskytte": 5827,
      "ĠDeretter": 5828,
      "Ġmaten": 5829,
      "Ġstudie": 5830,
      "Ġfylke": 5831,
      "Ġeventyr": 5832,
      "valget": 5833,
      "ĠHenrik": 5834,
      "Ġoptim": 5835,
      "Ġkarriere": 5836,
      "Ġbeskjed": 5837,
      "bor": 5838,
      "ec": 5839,
      "kong": 5840,
      "miljÃ¸": 5841,
      "slig": 5842,
      "enning": 5843,
      "Ġhest": 5844,
      "ĠbÃ¸l": 5845,
      "Ġkysten": 5846,
      "sku": 5847,
      "Ġfored": 5848,
      "esÃ¸k": 5849,
      "Ġstab": 5850,
      "Ġrunde": 5851,
      "Ġinnflyt": 5852,
      "Ġinnbyggere": 5853,
      "Ġlisten": 5854,
      "akten": 5855,
      "Ġcom": 5856,
      "Ġplast": 5857,
      "klar": 5858,
      "Ġannon": 5859,
      "itetene": 5860,
      "Ġbillig": 5861,
      "ĠsmÃ¸r": 5862,
      "Ġnettsted": 5863,
      "Ġnettsteder": 5864,
      "ĠArk": 5865,
      "Ġbegynt": 5866,
      "Ã¸mte": 5867,
      "Ġnyttig": 5868,
      "styret": 5869,
      "ĠsÃ¸rlige": 5870,
      "ĠmÃ¥ltid": 5871,
      "Ġerfaringer": 5872,
      "Ġpasienter": 5873,
      "hammer": 5874,
      "Ġhevder": 5875,
      "Ġvinteren": 5876,
      "Ġpositiv": 5877,
      "Ġkilometer": 5878,
      "feltet": 5879,
      "ĠGjennom": 5880,
      "Ġfiender": 5881,
      "Ġattraksjoner": 5882,
      "Ã¦ledyr": 5883,
      "Fly": 5884,
      "TE": 5885,
      "hu": 5886,
      "Ġmere": 5887,
      "Ġhende": 5888,
      "stav": 5889,
      "Ġivaret": 5890,
      "Ġpakker": 5891,
      "livet": 5892,
      "Ġtilstede": 5893,
      "Ġuka": 5894,
      "Ġskiller": 5895,
      "Ã¦s": 5896,
      "ĠjÃ¸d": 5897,
      "ĠHoved": 5898,
      "ĠBet": 5899,
      "ĠBay": 5900,
      "Ġalli": 5901,
      "Ġgjeste": 5902,
      "ival": 5903,
      "ape": 5904,
      "ĠmÃ¥let": 5905,
      "Ġminste": 5906,
      "jerner": 5907,
      "ĠWil": 5908,
      "alem": 5909,
      "Ġbyer": 5910,
      "smenn": 5911,
      "Ġhellig": 5912,
      "Ġforbru": 5913,
      "rommet": 5914,
      "Ġmester": 5915,
      "Ġ150": 5916,
      "Ġvidt": 5917,
      "Ġbror": 5918,
      "Ġkommunen": 5919,
      "Ġpartiet": 5920,
      "Ġfamilier": 5921,
      "Ġskjermen": 5922,
      "Ġbenytter": 5923,
      "Ġdyp": 5924,
      "Ġbefinner": 5925,
      "ĠopprÃ¸r": 5926,
      "Ġoppgave": 5927,
      "ĠforstÃ¥else": 5928,
      "Ġorganisasjon": 5929,
      "Ġgulv": 5930,
      "ĠFÃ¸rst": 5931,
      "ĠClub": 5932,
      "Ġoffisielle": 5933,
      "ĠnÃ¦rmeste": 5934,
      "Ġmiskunnhet": 5935,
      "bÃ¸": 5936,
      "bre": 5937,
      "bilde": 5938,
      "tende": 5939,
      "etning": 5940,
      "Ġdans": 5941,
      "Ġdoll": 5942,
      "Ġminner": 5943,
      "Ġtyn": 5944,
      "Ġbatter": 5945,
      "Ġvand": 5946,
      "Ġventet": 5947,
      "Ġpensjon": 5948,
      "esse": 5949,
      "ĠHall": 5950,
      "ĠutfÃ¸re": 5951,
      "ents": 5952,
      "ĠTre": 5953,
      "ĠTry": 5954,
      "ĠKe": 5955,
      "ĠKultur": 5956,
      "ĠOle": 5957,
      "ssp": 5958,
      "ĠetterpÃ¥": 5959,
      "Ġarm": 5960,
      "abor": 5961,
      "klass": 5962,
      "Ġsymp": 5963,
      "plan": 5964,
      "ĠArne": 5965,
      "Ġ1500": 5966,
      "ĠkjÃ¸le": 5967,
      "Ġrul": 5968,
      "film": 5969,
      "ĠnÃ¸dvendige": 5970,
      "Ġveggen": 5971,
      "Ġengelske": 5972,
      "Ġmengde": 5973,
      "ĠTwitter": 5974,
      "Ge": 5975,
      "OK": 5976,
      "rin": 5977,
      "zz": 5978,
      "Ġbist": 5979,
      "Ġkandid": 5980,
      "Ġpat": 5981,
      "Ġpunkt": 5982,
      "verktÃ¸y": 5983,
      "ĠSkj": 5984,
      "Ġintet": 5985,
      "Ġskoler": 5986,
      "ĠHong": 5987,
      "ĠrÃ¸de": 5988,
      "ĠTÃ¸nsberg": 5989,
      "forn": 5990,
      "ĠOff": 5991,
      "osjon": 5992,
      "Ġkonkret": 5993,
      "Ġtidspunkt": 5994,
      "ryd": 5995,
      "Ġsystemet": 5996,
      "ipedia": 5997,
      "Ġkommand": 5998,
      "ĠvÃ¥k": 5999,
      "ĠChar": 6000,
      "ommons": 6001,
      "Ġelevene": 6002,
      "OgsÃ¥": 6003,
      "useet": 6004,
      "Ġdatamaskin": 6005,
      "ĠISO": 6006,
      "Ġkombinert": 6007,
      "Ġtilfredsst": 6008,
      "72": 6009,
      "Kl": 6010,
      "basseng": 6011,
      "wood": 6012,
      "Ġout": 6013,
      "orp": 6014,
      "Ġkyst": 6015,
      "Ġforestilling": 6016,
      "Ġgal": 6017,
      "ĠÃ¥syn": 6018,
      "unk": 6019,
      "amm": 6020,
      "Ġjust": 6021,
      "ĠMuseum": 6022,
      "ĠBok": 6023,
      "ĠFoto": 6024,
      "ĠEv": 6025,
      "aket": 6026,
      "ĠCup": 6027,
      "Ġ--": 6028,
      "delag": 6029,
      "Ġmotiver": 6030,
      "kets": 6031,
      "Ġgrenser": 6032,
      "Ġhelhet": 6033,
      "ktes": 6034,
      "produs": 6035,
      "inerer": 6036,
      "sjett": 6037,
      "Ġdiam": 6038,
      "Ġansvaret": 6039,
      "ytning": 6040,
      "Ġmodell": 6041,
      "Ġinnlegget": 6042,
      "Ġeventuelt": 6043,
      "Ġimponer": 6044,
      "Ġhevdet": 6045,
      "Ġsannsynligvis": 6046,
      "Ġrussiske": 6047,
      "Ġinformasjonskapsler": 6048,
      ".âĢĿ": 6049,
      "Ant": 6050,
      "BC": 6051,
      "RI": 6052,
      "VD": 6053,
      "drag": 6054,
      "fre": 6055,
      "tar": 6056,
      "tab": 6057,
      "vant": 6058,
      "inder": 6059,
      "Ġmagen": 6060,
      "Ġtast": 6061,
      "Ġau": 6062,
      "Ġnede": 6063,
      "ĠDN": 6064,
      "ĠDi": 6065,
      "aga": 6066,
      "Ġdekket": 6067,
      "ĠTour": 6068,
      "ĠPet": 6069,
      "annelse": 6070,
      "ĠVidere": 6071,
      "ordning": 6072,
      "menne": 6073,
      "iering": 6074,
      "iseres": 6075,
      "Ġtilbys": 6076,
      "Ġlyse": 6077,
      "ĠAnder": 6078,
      "Ġfrihet": 6079,
      "synet": 6080,
      "ĠÃĺster": 6081,
      "Ġlevert": 6082,
      "blad": 6083,
      "Ġledelse": 6084,
      "Ġkreve": 6085,
      "Ġautor": 6086,
      "Ġforvent": 6087,
      "Ġ1970": 6088,
      "ĠnÃ¸dvendigvis": 6089,
      "ĠResort": 6090,
      "Ġdannet": 6091,
      "ĠKnut": 6092,
      "Ġbussen": 6093,
      "Ġkonsekvenser": 6094,
      "Ġpengene": 6095,
      "86": 6096,
      "End": 6097,
      "Flere": 6098,
      "IfÃ¸lge": 6099,
      "Polit": 6100,
      "Siden": 6101,
      "oy": 6102,
      "Ġdron": 6103,
      "Ġfulle": 6104,
      "any": 6105,
      "rab": 6106,
      "ages": 6107,
      "ĠST": 6108,
      "atal": 6109,
      "ĠHus": 6110,
      "ĠPolit": 6111,
      "ĠÃ¥rsak": 6112,
      "obby": 6113,
      "Ġcon": 6114,
      "Ġmotsetning": 6115,
      "Ġhjul": 6116,
      "elles": 6117,
      "industri": 6118,
      "Ġfremme": 6119,
      "Ġriks": 6120,
      "ĠÃ¸kende": 6121,
      "Ġtingene": 6122,
      "elefoner": 6123,
      "settelse": 6124,
      "Ġkapit": 6125,
      "Ġbutikker": 6126,
      "ĠmÃ¸rke": 6127,
      "somrÃ¥der": 6128,
      "ennligst": 6129,
      "Ġeksisterende": 6130,
      "Ġovernattings": 6131,
      "Ġryggen": 6132,
      "-/": 6133,
      "74": 6134,
      "DE": 6135,
      "Euro": 6136,
      "Tom": 6137,
      "air": 6138,
      "folket": 6139,
      "ĠÃ¸r": 6140,
      "Ġmate": 6141,
      "Ġtal": 6142,
      "Ġkrem": 6143,
      "skon": 6144,
      "Ġforster": 6145,
      "unch": 6146,
      "verden": 6147,
      "ĠMÃ¥": 6148,
      "usalem": 6149,
      "ĠKlikk": 6150,
      "Ġlei": 6151,
      "Ġtrinn": 6152,
      "ico": 6153,
      "ansjen": 6154,
      "Ġco": 6155,
      "Ġanal": 6156,
      "ringe": 6157,
      "resjon": 6158,
      "rerer": 6159,
      "Ġtypen": 6160,
      "handel": 6161,
      "ĠhÃ¥p": 6162,
      "Ġnordiske": 6163,
      "ĠMaria": 6164,
      "Ġeksempler": 6165,
      "Skrevet": 6166,
      "ĠThomas": 6167,
      "ĠBlant": 6168,
      "ĠMichael": 6169,
      "Ġregistrere": 6170,
      "Ġpepper": 6171,
      "ĠDagbladet": 6172,
      "Ġmyndigheter": 6173,
      "Ġpriori": 6174,
      "100": 6175,
      "Ver": 6176,
      "ih": 6177,
      "kultur": 6178,
      "sle": 6179,
      "Ġsidene": 6180,
      "inere": 6181,
      "Ġhavn": 6182,
      "strid": 6183,
      "Ġabo": 6184,
      "Ġku": 6185,
      "ĠforstÃ¥r": 6186,
      "Ġende": 6187,
      "Ã¸rrelse": 6188,
      "Ġskru": 6189,
      "ĠAust": 6190,
      "ĠoppstÃ¥r": 6191,
      "iken": 6192,
      "ĠPark": 6193,
      "ĠLiv": 6194,
      "ĠVen": 6195,
      "Ġsammens": 6196,
      "yrer": 6197,
      "vei": 6198,
      "ostel": 6199,
      "Ġbygger": 6200,
      "akkert": 6201,
      "Ġrettet": 6202,
      "Ġsynd": 6203,
      "ĠskjÃ¸nner": 6204,
      "Ġfilmer": 6205,
      "Ã¸mmer": 6206,
      "Ġstatsminister": 6207,
      "Ġplanlagt": 6208,
      "2011": 6209,
      "tegn": 6210,
      "Ġkapasitet": 6211,
      "Ġobserv": 6212,
      "ĠInternational": 6213,
      "azz": 6214,
      "vidde": 6215,
      "Ġredusert": 6216,
      "Ġrappor": 6217,
      "Ġtunge": 6218,
      "Ġtittelen": 6219,
      "59": 6220,
      "61": 6221,
      "He": 6222,
      "fasen": 6223,
      "kap": 6224,
      "lend": 6225,
      "nden": 6226,
      "rÃ¸rende": 6227,
      "to": 6228,
      "Ġ#": 6229,
      "erv": 6230,
      "ĠfÃ¦r": 6231,
      "Ġbuss": 6232,
      "Ġprat": 6233,
      "ley": 6234,
      "skilt": 6235,
      "ĠSw": 6236,
      "rot": 6237,
      "ĠFrem": 6238,
      "oda": 6239,
      "istikk": 6240,
      "Ġtrans": 6241,
      "ĠUansett": 6242,
      "Ġregner": 6243,
      "Ġtrekker": 6244,
      "ays": 6245,
      "Ġperspekt": 6246,
      "ĠAnn": 6247,
      "inerende": 6248,
      "Ġsaks": 6249,
      "ĠsÃ¸ster": 6250,
      "ĠdÃ¸g": 6251,
      "ĠÃħr": 6252,
      "Ġdyre": 6253,
      "ahl": 6254,
      "samling": 6255,
      "Ġmanglende": 6256,
      "Ġinternasjonal": 6257,
      "Ġhuske": 6258,
      "Ġprodusert": 6259,
      "ĠnÃ¸ye": 6260,
      "Ġkryd": 6261,
      "Ġrefle": 6262,
      "73": 6263,
      "UR": 6264,
      "cl": 6265,
      "delige": 6266,
      "Ġhit": 6267,
      "ilighet": 6268,
      "Ġag": 6269,
      "Ġpasse": 6270,
      "Ġlurer": 6271,
      "olke": 6272,
      "Ġskinn": 6273,
      "Ġomgang": 6274,
      "ĠKing": 6275,
      "ĠKun": 6276,
      "ĠVal": 6277,
      "utstyr": 6278,
      "Ã¸lg": 6279,
      "lemmer": 6280,
      "Ġnettsider": 6281,
      "isjoner": 6282,
      "dommen": 6283,
      "ologien": 6284,
      "Ġfersk": 6285,
      "Ġmorsomt": 6286,
      "Ġtide": 6287,
      "Ġegenskaper": 6288,
      "Ġtilfel": 6289,
      "Ġstarten": 6290,
      "Ġfjerde": 6291,
      "Ġgruppen": 6292,
      "ĠRoma": 6293,
      "Ġnew": 6294,
      "Ġversjonen": 6295,
      "ĠmilitÃ¦re": 6296,
      "forskning": 6297,
      "Merk": 6298,
      "hjelp": 6299,
      "76": 6300,
      "Min": 6301,
      "NU": 6302,
      "log": 6303,
      "melige": 6304,
      "sig": 6305,
      "tru": 6306,
      "ute": 6307,
      "Ġdl": 6308,
      "Ġtank": 6309,
      "arp": 6310,
      "ream": 6311,
      "Ġkul": 6312,
      "Ġpyn": 6313,
      "Ġlast": 6314,
      "agno": 6315,
      "ĠHav": 6316,
      "Ġomsorg": 6317,
      "fors": 6318,
      "ĠFord": 6319,
      "Ġinntrykk": 6320,
      "ĠPeder": 6321,
      "Ġkompl": 6322,
      "ynd": 6323,
      "Ġminim": 6324,
      "umet": 6325,
      "smann": 6326,
      "oppen": 6327,
      "Ġgiftet": 6328,
      "Ġvider": 6329,
      "Ã¸mmet": 6330,
      "Ġstatus": 6331,
      "Ġoftest": 6332,
      "Ġmail": 6333,
      "Ġ1996": 6334,
      "Ãĺnsker": 6335,
      "Ġtekniske": 6336,
      "Ġnevne": 6337,
      "butikk": 6338,
      "Ġrestauranter": 6339,
      "aktiviteter": 6340,
      "Ġtilpasset": 6341,
      "Nord": 6342,
      "SP": 6343,
      "bland": 6344,
      "ee": 6345,
      "ho": 6346,
      "lam": 6347,
      "mere": 6348,
      "weg": 6349,
      "Ġsand": 6350,
      "Ġsens": 6351,
      "Ġsort": 6352,
      "Ġfen": 6353,
      "Ġond": 6354,
      "Ġhagen": 6355,
      "Ġhurtig": 6356,
      "Ġvend": 6357,
      "onym": 6358,
      "Ġdekker": 6359,
      "ivalen": 6360,
      "ĠLi": 6361,
      "ĠLov": 6362,
      "ĠRh": 6363,
      "Ġkjenn": 6364,
      "Ã¸ndelag": 6365,
      "Ġdels": 6366,
      "legging": 6367,
      "Ġkvart": 6368,
      "Ġwill": 6369,
      "likevel": 6370,
      "Ġytre": 6371,
      "Ġ75": 6372,
      "2009": 6373,
      "Ġklikker": 6374,
      "Ġteksten": 6375,
      "Ġbeskrevet": 6376,
      "Ġstyrker": 6377,
      "Ġ1998": 6378,
      "Ġfylt": 6379,
      "Ġhalvt": 6380,
      "ĠAndroid": 6381,
      "Ġtvang": 6382,
      "Ġobjekt": 6383,
      "Ġbefolkning": 6384,
      "Velkommen": 6385,
      "vesenet": 6386,
      "Ġskuespiller": 6387,
      "Ġpalestin": 6388,
      "Foto": 6389,
      "Tr": 6390,
      "dÃ¸rs": 6391,
      "jes": 6392,
      "kse": 6393,
      "tur": 6394,
      "Ġ=": 6395,
      "anel": 6396,
      "Ġikk": 6397,
      "Ġformen": 6398,
      "Ġlove": 6399,
      "Ã¸rsmÃ¥l": 6400,
      "ĠstÃ¥ende": 6401,
      "amb": 6402,
      "ktene": 6403,
      "Ġinfo": 6404,
      "ĠFly": 6405,
      "Ġ(Â«": 6406,
      "Ġspurte": 6407,
      "akob": 6408,
      "ĠLind": 6409,
      "ĠJapan": 6410,
      "Ġkonsert": 6411,
      "Ġklokk": 6412,
      "vard": 6413,
      "varen": 6414,
      "Ġbetalt": 6415,
      "rening": 6416,
      "Ġselger": 6417,
      "Ġhistorisk": 6418,
      "rakten": 6419,
      "hengige": 6420,
      "Ġprins": 6421,
      "snivÃ¥": 6422,
      "........": 6423,
      "Ġshopping": 6424,
      "Ġtrukket": 6425,
      "Ġintro": 6426,
      "ĠÃ¸vrig": 6427,
      "Ġlavt": 6428,
      "ĠmÃ¸rk": 6429,
      "Ġulov": 6430,
      "ĠArbeider": 6431,
      "Ġutvidet": 6432,
      "Ġforeldrene": 6433,
      "ĠJerusalem": 6434,
      "!)": 6435,
      ".||": 6436,
      "DA": 6437,
      "gjer": 6438,
      "vd": 6439,
      "vende": 6440,
      "Ġmelder": 6441,
      "stjern": 6442,
      "rakter": 6443,
      "allere": 6444,
      "Ġavstand": 6445,
      "ĠpÃ¥pe": 6446,
      "Ġlurt": 6447,
      "ĠSenere": 6448,
      "Ġutnev": 6449,
      "ĠutÃ¸vere": 6450,
      "rup": 6451,
      "ĠAp": 6452,
      "ĠNeder": 6453,
      "ĠIran": 6454,
      "Ġgjens": 6455,
      "sering": 6456,
      "ĠRiks": 6457,
      "Ġpersonen": 6458,
      "Ġigjennom": 6459,
      "arbeidere": 6460,
      "Ġmaks": 6461,
      "Ġsluttet": 6462,
      "Ġblogger": 6463,
      "2013": 6464,
      "Ġkjemp": 6465,
      "Ġutgave": 6466,
      "mbol": 6467,
      "Ġslippe": 6468,
      "Ġmobilt": 6469,
      "itteratur": 6470,
      "baserte": 6471,
      "ĠÃ¸delagt": 6472,
      "Ġpublisert": 6473,
      "Ġfysiske": 6474,
      "Ġhimmelen": 6475,
      "outh": 6476,
      "virkning": 6477,
      "Ġdigitale": 6478,
      "ĠdÃ¸gnet": 6479,
      "IM": 6480,
      "Rom": 6481,
      "jor": 6482,
      "mende": 6483,
      "minn": 6484,
      "oger": 6485,
      "ĠmÃ¸nster": 6486,
      "Ġhull": 6487,
      "Ġtog": 6488,
      "arte": 6489,
      "Ġbunn": 6490,
      "Ġbank": 6491,
      "Ġpga": 6492,
      "Ġpakken": 6493,
      "skop": 6494,
      "Ġgo": 6495,
      "Ġnu": 6496,
      "igurer": 6497,
      "Ġud": 6498,
      "ĠstÃ¥tt": 6499,
      "ĠSj": 6500,
      "ati": 6501,
      "ĠHouse": 6502,
      "ĠMont": 6503,
      "Ġblei": 6504,
      "ĠVol": 6505,
      "ĠJÃ¸r": 6506,
      "Ġnytte": 6507,
      "jernen": 6508,
      "gjorde": 6509,
      "ĠStock": 6510,
      "retning": 6511,
      "Ġregne": 6512,
      "resident": 6513,
      "Ġserie": 6514,
      "ĠForsk": 6515,
      "ebygg": 6516,
      "dommer": 6517,
      "Ġansatt": 6518,
      "inering": 6519,
      "ĠsÃ¸vn": 6520,
      "Ġbeskriv": 6521,
      "brid": 6522,
      "Ġskapte": 6523,
      "ĠEurope": 6524,
      "Ġbygninger": 6525,
      "Ġtillatelse": 6526,
      "Ġvestlige": 6527,
      "Ġinternasjonalt": 6528,
      "ĠPlay": 6529,
      "Ã¼n": 6530,
      "Ġramme": 6531,
      "Ġvokste": 6532,
      "Ġdebatten": 6533,
      "Ġjevn": 6534,
      "Ġberegnet": 6535,
      "Ġpersonopplysninger": 6536,
      "ĠvideregÃ¥ende": 6537,
      "Bar": 6538,
      "__": 6539,
      "ao": 6540,
      "aw": 6541,
      "bÃ¥nd": 6542,
      "oom": 6543,
      "tel": 6544,
      "Ġsog": 6545,
      "Ġslit": 6546,
      "Ġdansk": 6547,
      "stiden": 6548,
      "Ġbordet": 6549,
      "tekst": 6550,
      "Ã¦l": 6551,
      "Ġjur": 6552,
      "ĠTra": 6553,
      "ĠPost": 6554,
      "ĠPetter": 6555,
      "Ġein": 6556,
      "ally": 6557,
      "ĠÃ¥rlig": 6558,
      "iverpool": 6559,
      "Ġforbi": 6560,
      "selskap": 6561,
      "grens": 6562,
      "Ġloven": 6563,
      "Ġmuslim": 6564,
      "Ġberg": 6565,
      "blog": 6566,
      "ĠsÃ¸rge": 6567,
      "Ġgreske": 6568,
      "Ġperioder": 6569,
      "Ġvurdert": 6570,
      "ĠmiljÃ¸et": 6571,
      "Ġpraktiske": 6572,
      "alistiske": 6573,
      "edagog": 6574,
      "52": 6575,
      "63": 6576,
      "77": 6577,
      "98": 6578,
      ":-)": 6579,
      "Publisert": 6580,
      "SÃħ": 6581,
      "][": 6582,
      "bjÃ¸rn": 6583,
      "dater": 6584,
      "hone": 6585,
      "vitenskap": 6586,
      "erende": 6587,
      "Ġsant": 6588,
      "orge": 6589,
      "Ã¸tet": 6590,
      "Ġafrik": 6591,
      "Ġkne": 6592,
      "omb": 6593,
      "Ġpappa": 6594,
      "lic": 6595,
      "ska": 6596,
      "Ġtilsyn": 6597,
      "Ġstreng": 6598,
      "ĠSim": 6599,
      "Ġinform": 6600,
      "Ġskatte": 6601,
      "ĠHÃ¸": 6602,
      "Ġdukker": 6603,
      "ĠNet": 6604,
      "ĠPart": 6605,
      "ĠPric": 6606,
      "Ġsamler": 6607,
      "Ġsamtid": 6608,
      "Ġprov": 6609,
      "icrosoft": 6610,
      "Ġras": 6611,
      "ransport": 6612,
      "ifik": 6613,
      "Ġmennesket": 6614,
      "ĠmÃ¸tet": 6615,
      "ruppen": 6616,
      "Ġprosessen": 6617,
      "ĠHarald": 6618,
      "Ġavsluttet": 6619,
      "fritt": 6620,
      "Ġvokser": 6621,
      "Ġopprinnelige": 6622,
      "Ġpositive": 6623,
      "Ġpositivt": 6624,
      "ĠHÃ¸yre": 6625,
      "Ġturist": 6626,
      "Ġfattig": 6627,
      "settes": 6628,
      "Ġfantes": 6629,
      "Ġikkje": 6630,
      "ĠPriceline": 6631,
      "selv": 6632,
      "ulere": 6633,
      "vitt": 6634,
      "vnen": 6635,
      "Ġ*": 6636,
      "enk": 6637,
      "Ġsolid": 6638,
      "Ã¥s": 6639,
      "Ġfing": 6640,
      "orgen": 6641,
      "ĠhÃ¸rte": 6642,
      "start": 6643,
      "stron": 6644,
      "Ã¸tter": 6645,
      "ĠbrÃ¸t": 6646,
      "Ġkje": 6647,
      "skog": 6648,
      "Ġfork": 6649,
      "Ġender": 6650,
      "Ġavis": 6651,
      "Ġmedia": 6652,
      "verdi": 6653,
      "agere": 6654,
      "ĠSig": 6655,
      "ĠSal": 6656,
      "ĠMark": 6657,
      "Ġoppn": 6658,
      "Ġrenn": 6659,
      "ĠIm": 6660,
      "ĠPal": 6661,
      "akere": 6662,
      "ĠLu": 6663,
      "Ġvill": 6664,
      "kerne": 6665,
      "Ġunik": 6666,
      "Ġnyere": 6667,
      "slet": 6668,
      "Ġunderhold": 6669,
      "Ġslappe": 6670,
      "klet": 6671,
      "Ġmusk": 6672,
      "Ġtrekk": 6673,
      "ampen": 6674,
      "kjÃ¸": 6675,
      "ifisert": 6676,
      "rettel": 6677,
      "arbeider": 6678,
      "Ġhandels": 6679,
      "Intern": 6680,
      "Ġstraks": 6681,
      "ETT": 6682,
      "Ġmottatt": 6683,
      "Ġbursdag": 6684,
      "Ġlikhet": 6685,
      "Ġhensikt": 6686,
      "ĠSelskapet": 6687,
      "Ġrettferdighet": 6688,
      "Ġgjeldende": 6689,
      "Ġdesignet": 6690,
      "51": 6691,
      "53": 6692,
      "AC": 6693,
      "Beliggenhet": 6694,
      "gifter": 6695,
      "kvalit": 6696,
      "oz": 6697,
      "ykket": 6698,
      "Ġ01": 6699,
      "Ã¥fÃ¸r": 6700,
      "orm": 6701,
      "Ġhust": 6702,
      "strÃ¥": 6703,
      "Ġba": 6704,
      "unget": 6705,
      "idar": 6706,
      "ason": 6707,
      "ĠDr": 6708,
      "ĠSong": 6709,
      "rokost": 6710,
      "ĠHP": 6711,
      "Ġutse": 6712,
      "ĠMet": 6713,
      "itz": 6714,
      "Ġopphav": 6715,
      "uld": 6716,
      "merker": 6717,
      "atten": 6718,
      "ĠJens": 6719,
      "Ġkjed": 6720,
      "Ġkonger": 6721,
      "pers": 6722,
      "astro": 6723,
      "Ġverken": 6724,
      "ylling": 6725,
      "Ġekskl": 6726,
      "ife": 6727,
      "Ġekspl": 6728,
      "Ġantallet": 6729,
      "offer": 6730,
      "Ġproduktet": 6731,
      "Ġdato": 6732,
      "Ġ1999": 6733,
      "ĠsÃ¸rger": 6734,
      "Ġkreativ": 6735,
      "Ġpresent": 6736,
      "Ġforskjellig": 6737,
      "Ġvegne": 6738,
      "Ġstykke": 6739,
      "Ġtapt": 6740,
      "Ġfrykter": 6741,
      "Ġhimmel": 6742,
      "Ġvasker": 6743,
      "field": 6744,
      "Ġrisiko": 6745,
      "Ġtilknytning": 6746,
      "itiativ": 6747,
      "ĠAftenposten": 6748,
      "ĠBreivik": 6749,
      ",\"": 6750,
      "85": 6751,
      "??": 6752,
      "Hv": 6753,
      "HÃ¥": 6754,
      "LES": 6755,
      "Ne": 6756,
      "cel": 6757,
      "imen": 6758,
      "Ġdvs": 6759,
      "Ġdiverse": 6760,
      "Ġkg": 6761,
      "ĠforelÃ¸pig": 6762,
      "Ġgate": 6763,
      "ism": 6764,
      "asert": 6765,
      "amin": 6766,
      "ĠDem": 6767,
      "Ġskaff": 6768,
      "ross": 6769,
      "ĠBi": 6770,
      "ĠBeg": 6771,
      "ĠTing": 6772,
      "ulÃ¦re": 6773,
      "ĠPerson": 6774,
      "ĠOb": 6775,
      "ĠOper": 6776,
      "ĠCenter": 6777,
      "viser": 6778,
      "Ġverste": 6779,
      "Ġflest": 6780,
      "ĠlÃ¸sningen": 6781,
      "Alt": 6782,
      "kontroll": 6783,
      "Ġfjellet": 6784,
      "izza": 6785,
      "gruppen": 6786,
      "Ġmenneskene": 6787,
      "Ġfulgt": 6788,
      "historie": 6789,
      "Ġrepresentant": 6790,
      "ĠÃ¥rhundre": 6791,
      "Dag": 6792,
      "IF": 6793,
      "aksjoner": 6794,
      "bro": 6795,
      "dynast": 6796,
      "kra": 6797,
      "lf": 6798,
      "Ġild": 6799,
      "Ġfange": 6800,
      "inde": 6801,
      "Ġenige": 6802,
      "Ġdekor": 6803,
      "ĠHelse": 6804,
      "ĠHvil": 6805,
      "Ġdusj": 6806,
      "Ġleilighet": 6807,
      "Ġetterl": 6808,
      "Ġklin": 6809,
      "Ġmerker": 6810,
      "Ġslapp": 6811,
      "Ġplatt": 6812,
      "Ġseri": 6813,
      "ĠbÃ¥t": 6814,
      "Ġheldigvis": 6815,
      "Ġsyntes": 6816,
      "rener": 6817,
      "ĠSpesi": 6818,
      "Ġfleks": 6819,
      "ĠNei": 6820,
      "Ġbestemme": 6821,
      "Ġtapte": 6822,
      "Ġmotta": 6823,
      "Ġamerikansk": 6824,
      "kelte": 6825,
      "produksjon": 6826,
      "ĠIII": 6827,
      "Ġadministrat": 6828,
      "ĠLillehammer": 6829,
      "Ġfritids": 6830,
      "43": 6831,
      "Land": 6832,
      "Ġvol": 6833,
      "liste": 6834,
      "aljer": 6835,
      "riter": 6836,
      "Ġutstilling": 6837,
      "angrep": 6838,
      "rud": 6839,
      "ĠBjÃ¸r": 6840,
      "Ġalter": 6841,
      "ĠIT": 6842,
      "akon": 6843,
      "akgrunn": 6844,
      "irer": 6845,
      "bestem": 6846,
      "Ġkonver": 6847,
      "Ġnyeste": 6848,
      "Ġbrutt": 6849,
      "abelt": 6850,
      "indelig": 6851,
      "ubber": 6852,
      "ĠbÃ¥nd": 6853,
      "Ġ400": 6854,
      "rise": 6855,
      "ĠfÃ¸lelser": 6856,
      "ible": 6857,
      "Ġhjemm": 6858,
      "otten": 6859,
      "Ġskjema": 6860,
      "ĠMarie": 6861,
      "cept": 6862,
      "Ġmusik": 6863,
      "partment": 6864,
      "konto": 6865,
      "Ġmodeller": 6866,
      "Ġpassasjer": 6867,
      "Ġhusker": 6868,
      "spillet": 6869,
      "vidt": 6870,
      "Ġfirma": 6871,
      "Ġbiblioteket": 6872,
      "asino": 6873,
      "ĠprÃ¸vde": 6874,
      "demokrat": 6875,
      "Ġkorrekt": 6876,
      "ĠExpedia": 6877,
      "bevaring": 6878,
      "Ġovenfor": 6879,
      "97": 6880,
      "Sh": 6881,
      "ny": 6882,
      "nitt": 6883,
      "vind": 6884,
      "Ġfett": 6885,
      "Ġtakt": 6886,
      "Ġtakket": 6887,
      "Ġbake": 6888,
      "Ġaff": 6889,
      "Ġvakkert": 6890,
      "Ġkult": 6891,
      "unge": 6892,
      "Ġstill": 6893,
      "Ġstruktur": 6894,
      "ĠHed": 6895,
      "ĠHitler": 6896,
      "ĠAss": 6897,
      "ettene": 6898,
      "ĠEli": 6899,
      "ĠinngÃ¥r": 6900,
      "Ġinntekt": 6901,
      "ordin": 6902,
      "ĠCD": 6903,
      "Ġnoens": 6904,
      "Ġund": 6905,
      "Ġnyheter": 6906,
      "Ġbrudd": 6907,
      "Ġ32": 6908,
      "fÃ¸rsel": 6909,
      "ĠutendÃ¸rs": 6910,
      "Ġgrunner": 6911,
      "Ġgrunnen": 6912,
      "attes": 6913,
      "Ġinformasjonen": 6914,
      "Ġ1600": 6915,
      "ĠnyttÃ¥r": 6916,
      "ĠspÃ¸rre": 6917,
      "kurs": 6918,
      "ĠidÃ©": 6919,
      "ĠOlsen": 6920,
      "Ġrammet": 6921,
      "Ġgeograf": 6922,
      "ĠHistory": 6923,
      "Ġringe": 6924,
      "ĠOGSÃħ": 6925,
      "Ġfengsel": 6926,
      "ĠreligiÃ¸se": 6927,
      "iansand": 6928,
      "ĠCounty": 6929,
      "Ġdollar": 6930,
      "stjerners": 6931,
      "Joh": 6932,
      "SK": 6933,
      "Ta": 6934,
      "lad": 6935,
      "vennlig": 6936,
      "stasjonen": 6937,
      "edel": 6938,
      "Ġforuts": 6939,
      "Ġgass": 6940,
      "Ġnekt": 6941,
      "alp": 6942,
      "Ġavvik": 6943,
      "ĠSov": 6944,
      "Ġskogen": 6945,
      "ĠMel": 6946,
      "ĠMens": 6947,
      "Ġresepsjon": 6948,
      "ĠAN": 6949,
      "ĠBrit": 6950,
      "Ġopprette": 6951,
      "ĠopplÃ¦ring": 6952,
      "ĠNils": 6953,
      "Ġinnov": 6954,
      "Ġliter": 6955,
      "ĠLib": 6956,
      "ĠJose": 6957,
      "ĠOS": 6958,
      "ĠRad": 6959,
      "spilling": 6960,
      "iert": 6961,
      "Ġettermid": 6962,
      "cht": 6963,
      "ĠgÃ¥rd": 6964,
      "Ġendring": 6965,
      "komst": 6966,
      "Ġhendelser": 6967,
      "Ġelementer": 6968,
      "Ġforholdene": 6969,
      "Ġsikret": 6970,
      "Ġterreng": 6971,
      "Ġteknisk": 6972,
      "Ġbehovet": 6973,
      "ĠbesÃ¸kende": 6974,
      "Norsk": 6975,
      "Ġmelk": 6976,
      "Ġtemaet": 6977,
      "Ġkonsept": 6978,
      "ĠkjÃ¸kkenet": 6979,
      "helm": 6980,
      "osteret": 6981,
      "Ġtestet": 6982,
      "ĠJacks": 6983,
      "Hvorfor": 6984,
      "vokat": 6985,
      "Ġtilstrekkelig": 6986,
      "ĠfÃ¦rre": 6987,
      "Fil": 6988,
      "La": 6989,
      "Pris": 6990,
      "Sc": 6991,
      "god": 6992,
      "ness": 6993,
      "oe": 6994,
      "ox": 6995,
      "Ġdrev": 6996,
      "ĠbÃ¦r": 6997,
      "Ġkamper": 6998,
      "Ġforbered": 6999,
      "tegi": 7000,
      "ega": 7001,
      "Ġdets": 7002,
      "amet": 7003,
      "agg": 7004,
      "ĠHand": 7005,
      "Ġreser": 7006,
      "ĠTri": 7007,
      "ĠFOR": 7008,
      "Ġ250": 7009,
      "Ġinnkvar": 7010,
      "ĠComp": 7011,
      "osit": 7012,
      "ĠkjÃ¸ret": 7013,
      "speri": 7014,
      "Ġsym": 7015,
      "irektÃ¸r": 7016,
      "Ġsju": 7017,
      "Ġaktive": 7018,
      "ĠaktÃ¸rer": 7019,
      "Ġ800": 7020,
      "Ġfriske": 7021,
      "Ġgammelt": 7022,
      "Ġparti": 7023,
      "Ġkampan": 7024,
      "gaard": 7025,
      "Ġuttal": 7026,
      "ĠRoy": 7027,
      "Ġopplevd": 7028,
      "Ġopplevelser": 7029,
      "Ġinteresser": 7030,
      "senteret": 7031,
      "skjema": 7032,
      "ĠpopulÃ¦rt": 7033,
      "ĠÃ¸vrige": 7034,
      "Ġrapport": 7035,
      "Ġklassisk": 7036,
      "Ġkristen": 7037,
      "Ġbehandlet": 7038,
      "ĠFinland": 7039,
      "Ġforfatteren": 7040,
      "Ġsivil": 7041,
      "boksen": 7042,
      "Ġsmerte": 7043,
      "Ġgrundig": 7044,
      "ĠGeoffrey": 7045,
      "ĠStockholm": 7046,
      "93": 7047,
      "Amerika": 7048,
      "Bil": 7049,
      "Book": 7050,
      "dalen": 7051,
      "Ġsolen": 7052,
      "Ġdrevet": 7053,
      "Ġfrelse": 7054,
      "Ġhage": 7055,
      "arkt": 7056,
      "Ã¸ter": 7057,
      "Ġap": 7058,
      "Ġadel": 7059,
      "Ġkle": 7060,
      "Ġpause": 7061,
      "Ġnull": 7062,
      "isbruk": 7063,
      "Ġlansert": 7064,
      "Ġmedie": 7065,
      "Ġstjerne": 7066,
      "riket": 7067,
      "ĠHadde": 7068,
      "Ġutlandet": 7069,
      "Ġoppgi": 7070,
      "ĠTu": 7071,
      "ĠEN": 7072,
      "Ġlikes": 7073,
      "ĠLegg": 7074,
      "ĠJord": 7075,
      "undt": 7076,
      "Ġundervisning": 7077,
      "vise": 7078,
      "smessig": 7079,
      "ĠgrÃ¸nne": 7080,
      "Ġarbeidsgiver": 7081,
      "Ġtyder": 7082,
      "sjef": 7083,
      "ĠMedia": 7084,
      "strasjon": 7085,
      "Ġnaturlige": 7086,
      "Ġmenneskerett": 7087,
      "Ġvirkeligheten": 7088,
      "ĠXbox": 7089,
      "Ġ1960": 7090,
      "Ġgulvet": 7091,
      "ĠtrÃ¥dlÃ¸st": 7092,
      "Ġmengder": 7093,
      "ĠHÃ¥kon": 7094,
      "ĠNoe": 7095,
      "versjonen": 7096,
      "Ġugud": 7097,
      "ĠJohannes": 7098,
      "Ġabout": 7099,
      "58": 7100,
      "band": 7101,
      "dyr": 7102,
      "mler": 7103,
      "press": 7104,
      "setter": 7105,
      "sels": 7106,
      "veld": 7107,
      "Ġ!": 7108,
      "Ġhindre": 7109,
      "ili": 7110,
      "stolen": 7111,
      "lege": 7112,
      "inga": 7113,
      "ington": 7114,
      "ĠtilnÃ¦r": 7115,
      "ĠlÃ¦rt": 7116,
      "Ġlatin": 7117,
      "ĠSA": 7118,
      "ĠHels": 7119,
      "ĠHER": 7120,
      "Ġomfang": 7121,
      "Ġrart": 7122,
      "ĠNM": 7123,
      "estaur": 7124,
      "Ġspiste": 7125,
      "odene": 7126,
      "aps": 7127,
      "ĠJakob": 7128,
      "ĠCO": 7129,
      "ĠvilkÃ¥r": 7130,
      "Ã¸yer": 7131,
      "Ã¸yet": 7132,
      "Ã¸yde": 7133,
      "ject": 7134,
      "osa": 7135,
      "Ġkone": 7136,
      "lyser": 7137,
      "Ġunderveis": 7138,
      "iment": 7139,
      "Ġfremste": 7140,
      "Ġbetaling": 7141,
      "Ġlandene": 7142,
      "Ġutenriks": 7143,
      "Ġlykkes": 7144,
      "Ġpoli": 7145,
      "Ġmuligens": 7146,
      "Ġflink": 7147,
      "ĠsÃ¸te": 7148,
      "Ġkorte": 7149,
      "kurran": 7150,
      "Ġforventet": 7151,
      "Ġtrakk": 7152,
      "ĠvÃ¦ret": 7153,
      "Ġpsykisk": 7154,
      "Ġsterkere": 7155,
      "Ġblomst": 7156,
      "Ġadministrasjon": 7157,
      "Ġuniversitet": 7158,
      "Ġkonstru": 7159,
      "ĠrÃ¸yk": 7160,
      "ĠpÃ¥virker": 7161,
      "Ġinspirert": 7162,
      "ĠÃ¸verst": 7163,
      "ĠWikipedia": 7164,
      "Ġkrydder": 7165,
      "57": 7166,
      "62": 7167,
      "UL": 7168,
      "bilder": 7169,
      "fred": 7170,
      "lov": 7171,
      "mag": 7172,
      "sse": 7173,
      "sser": 7174,
      "sreg": 7175,
      "ware": 7176,
      "Ġfrig": 7177,
      "anker": 7178,
      "Ġtolk": 7179,
      "struktur": 7180,
      "Ġifra": 7181,
      "Ġvond": 7182,
      "Ġkake": 7183,
      "Ġkastet": 7184,
      "skelige": 7185,
      "Ġforsiktig": 7186,
      "Ġgri": 7187,
      "Ġtilrettel": 7188,
      "aldt": 7189,
      "ĠHeg": 7190,
      "Ġinnbygger": 7191,
      "anner": 7192,
      "ĠLy": 7193,
      "ĠLiverpool": 7194,
      "Ġoverlev": 7195,
      "ĠCom": 7196,
      "ierne": 7197,
      "abeth": 7198,
      "Ġpluss": 7199,
      "Ġmulige": 7200,
      "Ġaltfor": 7201,
      "ĠHansen": 7202,
      "feransen": 7203,
      "Ġhjemmet": 7204,
      "ĠforsÃ¸ker": 7205,
      "Ġfaren": 7206,
      "Ġfarlig": 7207,
      "fÃ¸lgende": 7208,
      "Ġevindelig": 7209,
      "ĠUng": 7210,
      "ĠÃ¸yne": 7211,
      "Ġkalle": 7212,
      "ĠSammen": 7213,
      "ĠfÃ¸les": 7214,
      "Ġtillater": 7215,
      "Ġvurdering": 7216,
      "ĠbelÃ¸p": 7217,
      "ĠpopulÃ¦r": 7218,
      "gruppe": 7219,
      "vanlig": 7220,
      "ĠforsÃ¸kte": 7221,
      "ĠHÃ¥per": 7222,
      "KKE": 7223,
      "Ġindividuelle": 7224,
      "ĠÃ¸verste": 7225,
      "Ġfrivillig": 7226,
      "Ġlunsj": 7227,
      "Ġanalyse": 7228,
      "Ġkredittkort": 7229,
      "Ġvedlikehold": 7230,
      "94": 7231,
      "ces": 7232,
      "gave": 7233,
      "ialer": 7234,
      "okker": 7235,
      "work": 7236,
      "ĠÃ¸l": 7237,
      "Ġsirk": 7238,
      "etisk": 7239,
      "Ġfunn": 7240,
      "iness": 7241,
      "Ġhemmelig": 7242,
      "Ġtung": 7243,
      "stjeneste": 7244,
      "Ġborg": 7245,
      "Ġengang": 7246,
      "Ã¥ring": 7247,
      "Ġreaksjon": 7248,
      "ĠBang": 7249,
      "Ġlikte": 7250,
      "âĢľ": 7251,
      "anti": 7252,
      "olden": 7253,
      "umb": 7254,
      "ump": 7255,
      "dager": 7256,
      "meter": 7257,
      "Ġfortj": 7258,
      "Ġkommersi": 7259,
      "Ġhelga": 7260,
      "Ġsjeld": 7261,
      "Ġglade": 7262,
      "Ġbedt": 7263,
      "ydro": 7264,
      "Ġhandlinger": 7265,
      "rafikken": 7266,
      "Ġselskaper": 7267,
      "ĠUnited": 7268,
      "ĠSamson": 7269,
      "Ġhalvparten": 7270,
      "Ġanbefales": 7271,
      "splan": 7272,
      "ights": 7273,
      "Ġgravid": 7274,
      "Ġfrivillige": 7275,
      "96": 7276,
      "AG": 7277,
      "BM": 7278,
      "Nr": 7279,
      "Oslo": 7280,
      "Var": 7281,
      "ax": 7282,
      "cond": 7283,
      "fÃ¸d": 7284,
      "foss": 7285,
      "iru": 7286,
      "iktet": 7287,
      "kende": 7288,
      "kÃ¥rene": 7289,
      "slige": 7290,
      "Ġdiv": 7291,
      "elg": 7292,
      "Ġpul": 7293,
      "Ġpast": 7294,
      "eds": 7295,
      "Ġforsker": 7296,
      "onert": 7297,
      "tekter": 7298,
      "Ġtildelt": 7299,
      "ami": 7300,
      "ams": 7301,
      "amling": 7302,
      "ĠSen": 7303,
      "olje": 7304,
      "ots": 7305,
      "ĠTIL": 7306,
      "ĠNar": 7307,
      "ĠinnfÃ¸rt": 7308,
      "ĠKor": 7309,
      "ĠKunst": 7310,
      "ĠVik": 7311,
      "Ġovergang": 7312,
      "Ġkjer": 7313,
      "Ġprost": 7314,
      "slÃ¥tt": 7315,
      "Ġtrene": 7316,
      "Ġarter": 7317,
      "Ġslott": 7318,
      "Ġgrensen": 7319,
      "redi": 7320,
      "Ġpoliti": 7321,
      "Ġ600": 7322,
      "Ġmorsom": 7323,
      "Ġ07": 7324,
      "ĠstÃ¸v": 7325,
      "stÃ¥tt": 7326,
      "Ġbestemmer": 7327,
      "Ġledere": 7328,
      "Ġfornuft": 7329,
      "Ġ1980": 7330,
      "Ġsliter": 7331,
      "Ġretur": 7332,
      "Ġbelast": 7333,
      "boken": 7334,
      "Ġutfordring": 7335,
      "Ġvinduer": 7336,
      "llup": 7337,
      "Ġkritikk": 7338,
      "tokoll": 7339,
      "Ġalvorlige": 7340,
      "ĠtilhÃ¸rer": 7341,
      "Ġkvinnen": 7342,
      "Ġretningslin": 7343,
      "ictor": 7344,
      "Ġutforske": 7345,
      "Ġsekunder": 7346,
      "Ġutnytte": 7347,
      "ĠAcem": 7348,
      "ĠsvÃ¸mmebasseng": 7349,
      "Ġyngre": 7350,
      "ĠLikevel": 7351,
      "Ġsvangerskap": 7352,
      ";)": 7353,
      "Bru": 7354,
      "Windows": 7355,
      "aksjonen": 7356,
      "dam": 7357,
      "ml": 7358,
      "park": 7359,
      "relsen": 7360,
      "Ġori": 7361,
      "Ġhas": 7362,
      "ĠhÃ¥ret": 7363,
      "Ã¸der": 7364,
      "Ġbunnen": 7365,
      "Ġvul": 7366,
      "Ġforresten": 7367,
      "Ġgram": 7368,
      "Ġenig": 7369,
      "tten": 7370,
      "Ġstilte": 7371,
      "ĠDere": 7372,
      "ĠHau": 7373,
      "ĠHusk": 7374,
      "ĠMil": 7375,
      "itim": 7376,
      "ĠBur": 7377,
      "Ġrene": 7378,
      "ĠTravel": 7379,
      "ĠNational": 7380,
      "hetene": 7381,
      "attle": 7382,
      "ĠPre": 7383,
      "ĠVeg": 7384,
      "Ġhvitt": 7385,
      "ĠGunn": 7386,
      "ĠRock": 7387,
      "ĠmÃ¥le": 7388,
      "vekst": 7389,
      "lymp": 7390,
      "Ġsektor": 7391,
      "imensjon": 7392,
      "klasse": 7393,
      "Ġegnet": 7394,
      "ultatet": 7395,
      "aya": 7396,
      "Ġmoro": 7397,
      "Ġfilosof": 7398,
      "ilton": 7399,
      "ĠSport": 7400,
      "Ġredde": 7401,
      "Ġdeltar": 7402,
      "undersÃ¸k": 7403,
      "Ġdommer": 7404,
      "Ġakadem": 7405,
      "Ġideer": 7406,
      "Ġprodusent": 7407,
      "Ġproduktene": 7408,
      "ĠprÃ¸vd": 7409,
      "Ġkreves": 7410,
      "Ġovernatting": 7411,
      "ĠPortug": 7412,
      "Ġfasc": 7413,
      "Ġrekru": 7414,
      "ĠAustra": 7415,
      "56": 7416,
      "81": 7417,
      "Gener": 7418,
      "MA": 7419,
      "ail": 7420,
      "bÃ¸r": 7421,
      "cup": 7422,
      "ykker": 7423,
      "Ã¥g": 7424,
      "ĠhÃ¸r": 7425,
      "Ġbly": 7426,
      "Ġamm": 7427,
      "ĠkÃ¸": 7428,
      "kka": 7429,
      "alinger": 7430,
      "esy": 7431,
      "amle": 7432,
      "ĠSpe": 7433,
      "atch": 7434,
      "Ġskum": 7435,
      "ĠHow": 7436,
      "ĠMal": 7437,
      "ĠMand": 7438,
      "Ġredig": 7439,
      "user": 7440,
      "ĠGra": 7441,
      "ĠGal": 7442,
      "ĠJames": 7443,
      "ogaland": 7444,
      "uta": 7445,
      "Ġbruken": 7446,
      "slÃ¸s": 7447,
      "Ġseil": 7448,
      "Ġsever": 7449,
      "ĠWal": 7450,
      "Ġcont": 7451,
      "Ġfortalt": 7452,
      "eside": 7453,
      "ĠmÃ¸tes": 7454,
      "Ġeksist": 7455,
      "bruket": 7456,
      "irka": 7457,
      "Ġresul": 7458,
      "Ġtilgjengelighet": 7459,
      "Ġmangel": 7460,
      "Ġdrap": 7461,
      "Ġluften": 7462,
      "Ġutstyrt": 7463,
      "bildet": 7464,
      "Ġhuman": 7465,
      "Ġkombinasjon": 7466,
      "curit": 7467,
      "Ġradio": 7468,
      "neprest": 7469,
      "ĠJean": 7470,
      "ĠdÃ¸mt": 7471,
      "Ġreklame": 7472,
      "Ġromerske": 7473,
      "Ġnoensinne": 7474,
      "91": 7475,
      "Fre": 7476,
      "best": 7477,
      "eing": 7478,
      "fuc": 7479,
      "riser": 7480,
      "sre": 7481,
      "Ġsing": 7482,
      "Ġmal": 7483,
      "Ġigang": 7484,
      "Ġkaff": 7485,
      "Ġprom": 7486,
      "list": 7487,
      "likket": 7488,
      "lish": 7489,
      "inge": 7490,
      "kkelen": 7491,
      "Ġenheter": 7492,
      "Ġnogen": 7493,
      "anda": 7494,
      "rive": 7495,
      "rister": 7496,
      "atende": 7497,
      "Ġske": 7498,
      "Ġjentene": 7499,
      "ĠHele": 7500,
      "Ġomtale": 7501,
      "Ġretter": 7502,
      "ĠFolk": 7503,
      "Ġinnsjekking": 7504,
      "ĠKir": 7505,
      "ĠLive": 7506,
      "ĠVan": 7507,
      "Ġbekl": 7508,
      "ĠRi": 7509,
      "Ġleke": 7510,
      "vekt": 7511,
      "Ġbyene": 7512,
      "Ġgodkj": 7513,
      "iseringen": 7514,
      "ndom": 7515,
      "Ġarbeidst": 7516,
      "Ġvirket": 7517,
      "komp": 7518,
      "ĠSkott": 7519,
      "sfasiliteter": 7520,
      "Ġparad": 7521,
      "Ġrut": 7522,
      "ĠÃ¥pning": 7523,
      "ĠNepal": 7524,
      "Ġ1995": 7525,
      "Ġ1997": 7526,
      "ĠâĢ¦": 7527,
      "ENT": 7528,
      "ĠdirektÃ¸r": 7529,
      "Ġsvarer": 7530,
      "jement": 7531,
      "Ġeffektivt": 7532,
      "Ġkonged": 7533,
      "Ġintens": 7534,
      "ĠbesÃ¸kte": 7535,
      "ĠKristus": 7536,
      "Ġtaket": 7537,
      "Ġneppe": 7538,
      "Ġsituasjoner": 7539,
      "Ġengasjer": 7540,
      "Ġdreier": 7541,
      "Ġytring": 7542,
      "Ġekstremt": 7543,
      "wegian": 7544,
      "54": 7545,
      "Con": 7546,
      "Mulig": 7547,
      "Sn": 7548,
      "Vennligst": 7549,
      "fon": 7550,
      "fisk": 7551,
      "hyl": 7552,
      "hastighet": 7553,
      "mi": 7554,
      "nr": 7555,
      "oi": 7556,
      "sid": 7557,
      "sinn": 7558,
      "ville": 7559,
      "Ġmek": 7560,
      "Ġmote": 7561,
      "Ġbit": 7562,
      "Ġvunnet": 7563,
      "Ġforhandling": 7564,
      "Ġgalt": 7565,
      "Ġgave": 7566,
      "Ġtillit": 7567,
      "Ġsome": 7568,
      "unisjon": 7569,
      "terier": 7570,
      "verdige": 7571,
      "ĠDram": 7572,
      "ĠSS": 7573,
      "light": 7574,
      "Ġdekke": 7575,
      "Ġutform": 7576,
      "ĠAL": 7577,
      "ĠAct": 7578,
      "ĠBegge": 7579,
      "Ġinnb": 7580,
      "Ġspar": 7581,
      "avene": 7582,
      "ĠLag": 7583,
      "ĠGran": 7584,
      "ĠCap": 7585,
      "Ġkjerne": 7586,
      "spolit": 7587,
      "ertug": 7588,
      "lyd": 7589,
      "ĠStreet": 7590,
      "Ġ360": 7591,
      "ekst": 7592,
      "redning": 7593,
      "Ġnedover": 7594,
      "Ġliggende": 7595,
      "Ġgrunnlagt": 7596,
      "mail": 7597,
      "Ġbrun": 7598,
      "Ġbox": 7599,
      "Ġonde": 7600,
      "ĠlÃ¸per": 7601,
      "anserte": 7602,
      "samlingen": 7603,
      "omrÃ¥dene": 7604,
      "Ġraskere": 7605,
      "fattet": 7606,
      "Ġmaterialet": 7607,
      "Ġmakten": 7608,
      "ATO": 7609,
      "ichard": 7610,
      "forbundet": 7611,
      "Ġhenholdsvis": 7612,
      "Ġtrengte": 7613,
      "Ġnegative": 7614,
      "Ġvarierer": 7615,
      "Ġdokumenter": 7616,
      "ografer": 7617,
      "Ġmuseum": 7618,
      "Ġinvolvert": 7619,
      "rollere": 7620,
      "Ġutslipp": 7621,
      "Ġinnflytelse": 7622,
      "aborator": 7623,
      "ĠÃĺsterrike": 7624,
      "Ġhustru": 7625,
      "Bet": 7626,
      "CC": 7627,
      "Te": 7628,
      "cp": 7629,
      "datter": 7630,
      "gin": 7631,
      "venn": 7632,
      "Ġdame": 7633,
      "ory": 7634,
      "Ġhed": 7635,
      "Ġtim": 7636,
      "stall": 7637,
      "ĠbÃ¸kene": 7638,
      "ĠforÃ¥r": 7639,
      "Ġavisen": 7640,
      "ĠpÃ¥g": 7641,
      "Ġlede": 7642,
      "Ġlave": 7643,
      "Ġstikk": 7644,
      "Ġstater": 7645,
      "ĠDy": 7646,
      "Ġskadet": 7647,
      "Ġdeigen": 7648,
      "Ġatom": 7649,
      "ĠAfri": 7650,
      "ussen": 7651,
      "ulen": 7652,
      "merk": 7653,
      "Ġlikt": 7654,
      "ĠPM": 7655,
      "anna": 7656,
      "Ġoversatt": 7657,
      "Ã¸ye": 7658,
      "besk": 7659,
      "Ġkonklusjon": 7660,
      "Ġprote": 7661,
      "vek": 7662,
      "Ġsees": 7663,
      "Ġcol": 7664,
      "ĠUr": 7665,
      "Ġ36": 7666,
      "Ġhverdagen": 7667,
      "Ġbeting": 7668,
      "Ġ48": 7669,
      "Ġrettss": 7670,
      "Ġromant": 7671,
      "Ġriket": 7672,
      "Ġskritt": 7673,
      "Ġverdier": 7674,
      "bruker": 7675,
      "Ġ1700": 7676,
      "Ġleverer": 7677,
      "Ġnaturen": 7678,
      "stedt": 7679,
      "Ġmetoder": 7680,
      "Ġalternativer": 7681,
      "Ġdannes": 7682,
      "kretÃ¦r": 7683,
      "Ġbudsjett": 7684,
      "Ġblandt": 7685,
      "Ġelektronisk": 7686,
      "ĠHimmler": 7687,
      "ĠHellas": 7688,
      "Ġitalienske": 7689,
      "Kontakt": 7690,
      "Ġutnevnt": 7691,
      "Ġnektet": 7692,
      "EP": 7693,
      "Finn": 7694,
      "ior": 7695,
      "sch": 7696,
      "uper": 7697,
      "Ġest": 7698,
      "ely": 7699,
      "Ġtor": 7700,
      "Ġtit": 7701,
      "Ġac": 7702,
      "Ġkaste": 7703,
      "Ġforeg": 7704,
      "Ġgeb": 7705,
      "Ġlette": 7706,
      "Ġleter": 7707,
      "Ġlink": 7708,
      "Ġmeditasjon": 7709,
      "Ġetn": 7710,
      "ĠHard": 7711,
      "ĠMye": 7712,
      "keb": 7713,
      "ĠAmer": 7714,
      "ĠNic": 7715,
      "Ġgjent": 7716,
      "attet": 7717,
      "ikon": 7718,
      "ĠOtt": 7719,
      "ĠOfte": 7720,
      "ittil": 7721,
      "anta": 7722,
      "ieren": 7723,
      "Ġnydelige": 7724,
      "Ġleste": 7725,
      "Ã¸konom": 7726,
      "Ġbiler": 7727,
      "venes": 7728,
      "Ġutenom": 7729,
      "ĠgÃ¥rden": 7730,
      "Ġheldig": 7731,
      "ĠsjÃ¸l": 7732,
      "Ġpolitikere": 7733,
      "prosjekt": 7734,
      "Ġsafe": 7735,
      "Ġrosa": 7736,
      "Inter": 7737,
      "ĠÃ¸ynene": 7738,
      "Ġtjenestene": 7739,
      "Ġangrepet": 7740,
      "Ġrepar": 7741,
      "Ġaktivt": 7742,
      "Ġterrit": 7743,
      "Ġmetode": 7744,
      "Arbeid": 7745,
      "Ġetablere": 7746,
      "Ġvennlig": 7747,
      "uligheter": 7748,
      "Ġusikker": 7749,
      "Ġkonfliktinnhold": 7750,
      "ĠSuper": 7751,
      "alistisk": 7752,
      "Ġmisten": 7753,
      "Ġmelding": 7754,
      "ĠAndreas": 7755,
      "Ġglemt": 7756,
      "musikk": 7757,
      "Ġvirksomheten": 7758,
      "ĠNasjonalbiblioteket": 7759,
      "Ġforedrag": 7760,
      "Ġtastatur": 7761,
      "Ġvondt": 7762,
      "92": 7763,
      "By": 7764,
      "Ber": 7765,
      "Hvil": 7766,
      "SS": 7767,
      "We": 7768,
      "gratis": 7769,
      "kunst": 7770,
      "ual": 7771,
      "Ġokk": 7772,
      "ĠhÃ¦ren": 7773,
      "ĠbÃ¸nn": 7774,
      "Ġpap": 7775,
      "listen": 7776,
      "onger": 7777,
      "Ġtilp": 7778,
      "unne": 7779,
      "Ġstabil": 7780,
      "ĠDig": 7781,
      "ĠMorten": 7782,
      "itivt": 7783,
      "ĠBon": 7784,
      "Ġspe": 7785,
      "ĠPower": 7786,
      "ĠVin": 7787,
      "ĠGa": 7788,
      "Ġbekv": 7789,
      "Ġkonferanse": 7790,
      "udi": 7791,
      "obil": 7792,
      "Ġtoal": 7793,
      "gjen": 7794,
      "Ġsies": 7795,
      "ĠNorway": 7796,
      "Ġhverken": 7797,
      "Ġ2015": 7798,
      "alister": 7799,
      "Ġkonto": 7800,
      "Ġlangrenn": 7801,
      "kommer": 7802,
      "ĠredaktÃ¸r": 7803,
      "Stor": 7804,
      "iteen": 7805,
      "Ġmusikken": 7806,
      "Ġfaktum": 7807,
      "Ġkalte": 7808,
      "Ġbase": 7809,
      "Ġbygde": 7810,
      "Ġresultatene": 7811,
      "ĠKristiansand": 7812,
      "Ġvoksen": 7813,
      "Ġkatol": 7814,
      "ĠEllers": 7815,
      "Ġstudere": 7816,
      "FÃ¸rste": 7817,
      "ĠLinux": 7818,
      "Ġfanget": 7819,
      "Ġsivile": 7820,
      "ĠatmosfÃ¦re": 7821,
      "Ġrelevant": 7822,
      "Ġsoldater": 7823,
      "Ġleiligheten": 7824,
      "ĠSkottland": 7825,
      "Eller": 7826,
      "SÃ¸k": 7827,
      "kli": 7828,
      "kro": 7829,
      "kake": 7830,
      "ves": 7831,
      "ĠÂ»": 7832,
      "Ġess": 7833,
      "etar": 7834,
      "Ġtallet": 7835,
      "Ã¸ve": 7836,
      "Ġback": 7837,
      "Ġkode": 7838,
      "Ġpus": 7839,
      "lick": 7840,
      "Ġgli": 7841,
      "Ġgrep": 7842,
      "kkede": 7843,
      "isc": 7844,
      "Ġuen": 7845,
      "Ġull": 7846,
      "ĠDo": 7847,
      "ĠSoc": 7848,
      "Ġutbred": 7849,
      "ĠMos": 7850,
      "ĠoppfÃ¸rt": 7851,
      "ĠrÃ¸dt": 7852,
      "ĠTore": 7853,
      "ĠNAV": 7854,
      "ĠNorth": 7855,
      "Ġinni": 7856,
      "ĠVir": 7857,
      "sled": 7858,
      "Ġtrend": 7859,
      "Ġslu": 7860,
      "Ġplassen": 7861,
      "landsk": 7862,
      "Ġlagde": 7863,
      "Ġbetegn": 7864,
      "irektor": 7865,
      "Ġgrunnet": 7866,
      "rupper": 7867,
      "Ġ06": 7868,
      "Ġstatsb": 7869,
      "Ġkaldt": 7870,
      "Ġ1992": 7871,
      "Ġinstallere": 7872,
      "Ġhvertfall": 7873,
      "asilitetene": 7874,
      "Ġfyller": 7875,
      "Ġdigital": 7876,
      "Ġansvarlige": 7877,
      "ĠBlack": 7878,
      "Ġsosi": 7879,
      "ĠBeh": 7880,
      "Ġeffektive": 7881,
      "Ġobser": 7882,
      "Ã¸vrig": 7883,
      "grupper": 7884,
      "Ġeiendommen": 7885,
      "Ġidentitet": 7886,
      "ĠpÃ¥virke": 7887,
      "Ġsammenlignet": 7888,
      "ĠÃ¸yeblikket": 7889,
      "Ġkinesiske": 7890,
      "Ġrulle": 7891,
      "bridge": 7892,
      "As": 7893,
      "Commons": 7894,
      "Del": 7895,
      "HE": 7896,
      "NTB": 7897,
      "Sy": 7898,
      "feil": 7899,
      "nede": 7900,
      "uf": 7901,
      "vakt": 7902,
      "xes": 7903,
      "ĠÃ¸re": 7904,
      "Ġdist": 7905,
      "Ġone": 7906,
      "Ġhor": 7907,
      "Ġtyng": 7908,
      "Ġtolv": 7909,
      "leie": 7910,
      "Ġforstand": 7911,
      "esnitt": 7912,
      "ĠmedfÃ¸rer": 7913,
      "Ġstilt": 7914,
      "Ġinitiativ": 7915,
      "ĠHy": 7916,
      "ĠTot": 7917,
      "usi": 7918,
      "ĠIV": 7919,
      "ĠEM": 7920,
      "Ġinngang": 7921,
      "Ġspons": 7922,
      "ikop": 7923,
      "uth": 7924,
      "innet": 7925,
      "ova": 7926,
      "chester": 7927,
      "smiljÃ¸": 7928,
      "vendt": 7929,
      "ĠÃ¸ine": 7930,
      "Ġkontra": 7931,
      "Ġkontakte": 7932,
      "Ġsnar": 7933,
      "Ġpersonvern": 7934,
      "Ġhenge": 7935,
      "sjekter": 7936,
      "ĠbesÃ¸ker": 7937,
      "Ġbeskyttelse": 7938,
      "Ġteat": 7939,
      "ĠstÃ¸ttet": 7940,
      "ĠberÃ¸mte": 7941,
      "upunkt": 7942,
      "ĠsÃ¸rget": 7943,
      "aliteten": 7944,
      "Ġuttry": 7945,
      "Ġsamarbeidet": 7946,
      "ĠdÃ¥rlige": 7947,
      "Ġmorgenen": 7948,
      "Ġbakgrunnen": 7949,
      "fullt": 7950,
      "personell": 7951,
      "Ġankomst": 7952,
      "Ġalbumet": 7953,
      "Ġlensmennene": 7954,
      "ĠskytevÃ¥pen": 7955,
      "kobling": 7956,
      "Ġoverraskende": 7957,
      "ĠIbsen": 7958,
      "Ġperspektiv": 7959,
      "Ġfenomen": 7960,
      "Takk": 7961,
      "VÃ¦r": 7962,
      "bÃ¸y": 7963,
      "fug": 7964,
      "gir": 7965,
      "erxes": 7966,
      "ence": 7967,
      "Ġsteg": 7968,
      "eloven": 7969,
      "Ġtrag": 7970,
      "Ġpark": 7971,
      "edal": 7972,
      "Ġforbe": 7973,
      "Ġtilstand": 7974,
      "raget": 7975,
      "Ġuover": 7976,
      "ĠstÃ¸y": 7977,
      "ĠDin": 7978,
      "Ġinte": 7979,
      "Ġharmon": 7980,
      "Ġreist": 7981,
      "ĠAugust": 7982,
      "otel": 7983,
      "ĠTem": 7984,
      "ĠTop": 7985,
      "ĠNÃ¦r": 7986,
      "ading": 7987,
      "estene": 7988,
      "Ġinnt": 7989,
      "ikre": 7990,
      "ĠVenere": 7991,
      "ĠVictor": 7992,
      "Ġovertok": 7993,
      "ĠColl": 7994,
      "Ġvilje": 7995,
      "itten": 7996,
      "ĠkjÃ¸rt": 7997,
      "Ġmini": 7998,
      "ices": 7999,
      "Ġsepar": 8000,
      "Ġslutte": 8001,
      "ĠmÃ¸tt": 8002,
      "sfull": 8003,
      "Ġansett": 8004,
      "Ġpreg": 8005,
      "Ġhandlet": 8006,
      "bruks": 8007,
      "Ġframtid": 8008,
      "Ġplanen": 8009,
      "ĠYou": 8010,
      "Ġleveres": 8011,
      "Ġlokalt": 8012,
      "intosh": 8013,
      "Ġkompon": 8014,
      "Ġtrygge": 8015,
      "166": 8016,
      "Ġsamfunns": 8017,
      "Ġ1989": 8018,
      "Ġstemning": 8019,
      "ĠSommer": 8020,
      "skritt": 8021,
      "Ġmodellen": 8022,
      "Ġtotale": 8023,
      "ĠÃ¥penbart": 8024,
      "Ġtilbudet": 8025,
      "Ġdanner": 8026,
      "ĠsÃ¸nnen": 8027,
      "Ġkatal": 8028,
      "alisere": 8029,
      "Ġstoppet": 8030,
      "Ġkrevde": 8031,
      "ĠundersÃ¸kelser": 8032,
      "Ġhuden": 8033,
      "Ġelven": 8034,
      "----------------": 8035,
      "ĠBodÃ¸": 8036,
      "Ġsympt": 8037,
      "Ġulovlig": 8038,
      "HÃ¥per": 8039,
      "curity": 8040,
      "Bl": 8041,
      "El": 8042,
      "Fl": 8043,
      "Sj": 8044,
      "bÃ¸l": 8045,
      "data": 8046,
      "mas": 8047,
      "mord": 8048,
      "tal": 8049,
      "uff": 8050,
      "vensjon": 8051,
      "Ġelen": 8052,
      "Ġhoff": 8053,
      "Ġvent": 8054,
      "Ġpal": 8055,
      "onder": 8056,
      "Ġtiltre": 8057,
      "Ġavl": 8058,
      "Ġlam": 8059,
      "Ġstede": 8060,
      "ĠSlike": 8061,
      "Ġinformer": 8062,
      "Ġskrem": 8063,
      "ĠMat": 8064,
      "itas": 8065,
      "ĠAth": 8066,
      "Ġdukket": 8067,
      "ĠTelemark": 8068,
      "Ġallikevel": 8069,
      "ula": 8070,
      "ĠsprÃ¥ket": 8071,
      "elling": 8072,
      "ĠLou": 8073,
      "ĠVolv": 8074,
      "ĠOut": 8075,
      "Ġoverl": 8076,
      "gjenger": 8077,
      "klin": 8078,
      "klart": 8079,
      "Ġ33": 8080,
      "Ġfremmed": 8081,
      "Ġbegrepet": 8082,
      "Ġsymbol": 8083,
      "Ġnedlast": 8084,
      "ivert": 8085,
      "Ġkontrollere": 8086,
      "Ġsvak": 8087,
      "ibelen": 8088,
      "Ġforbin": 8089,
      "Ġhjemmes": 8090,
      "ology": 8091,
      "Ġfargen": 8092,
      "hengighet": 8093,
      "ĠdÃ¸den": 8094,
      "ĠdÃ¸gn": 8095,
      "Ġdypt": 8096,
      "filer": 8097,
      "Ġgenerelle": 8098,
      "Ġutgiv": 8099,
      "sforsk": 8100,
      "ĠmÃ¥neden": 8101,
      "skriver": 8102,
      "Ġscenen": 8103,
      "Ġbryte": 8104,
      "Ġmelde": 8105,
      "Ġkonfliktfasen": 8106,
      "Ġversjoner": 8107,
      "umenter": 8108,
      "Ġspesiali": 8109,
      "Ġstrikke": 8110,
      "ĠLarsen": 8111,
      "ĠsÃ¥kalt": 8112,
      "Ġfeltet": 8113,
      "ĠHvem": 8114,
      "ĠNederland": 8115,
      "personer": 8116,
      "84": 8117,
      "Kom": 8118,
      "cis": 8119,
      "fot": 8120,
      "house": 8121,
      "lar": 8122,
      "mund": 8123,
      "pre": 8124,
      "papir": 8125,
      "rd": 8126,
      "sling": 8127,
      "ues": 8128,
      "vinner": 8129,
      "Ġsunn": 8130,
      "Ġsanger": 8131,
      "orks": 8132,
      "inene": 8133,
      "arter": 8134,
      "stille": 8135,
      "skil": 8136,
      "skost": 8137,
      "Ġforest": 8138,
      "Ġgraf": 8139,
      "kkende": 8140,
      "Ġnom": 8141,
      "asper": 8142,
      "Ġsti": 8143,
      "ĠDub": 8144,
      "agene": 8145,
      "ĠSP": 8146,
      "Ġetasje": 8147,
      "ĠHo": 8148,
      "ĠHigh": 8149,
      "ĠMath": 8150,
      "Ġreager": 8151,
      "ĠBull": 8152,
      "adder": 8153,
      "ĠIKKE": 8154,
      "ĠEle": 8155,
      "ĠEtt": 8156,
      "ementet": 8157,
      "Ġinnh": 8158,
      "ĠKort": 8159,
      "Ġsamarbeide": 8160,
      "ĠGul": 8161,
      "ĠGolf": 8162,
      "ĠJensen": 8163,
      "ĠRon": 8164,
      "meng": 8165,
      "oble": 8166,
      "ĠWester": 8167,
      "Ġslave": 8168,
      "Ġ39": 8169,
      "Ġbeteg": 8170,
      "Ġlandskap": 8171,
      "ĠIng": 8172,
      "Ġtreffe": 8173,
      "Ġutenlandske": 8174,
      "rerende": 8175,
      "ĠnÃ¦ring": 8176,
      "fÃ¸lelse": 8177,
      "setninger": 8178,
      "Ġeksper": 8179,
      "Ġ03": 8180,
      "Ġrusm": 8181,
      "Ġholdes": 8182,
      "alleri": 8183,
      "Ġkostnader": 8184,
      "Ġtapet": 8185,
      "Ġnevnes": 8186,
      "Ġoppdatering": 8187,
      "Ġutvalget": 8188,
      "Ġmektig": 8189,
      "Ġbanen": 8190,
      "Ġbehandlingen": 8191,
      "Ġkryss": 8192,
      "ĠhÃ¸res": 8193,
      "Ġglemme": 8194,
      "Ġinteressante": 8195,
      "ĠundersÃ¸kelse": 8196,
      "Ġgutten": 8197,
      "Ġtrengs": 8198,
      "Ġforskjellen": 8199,
      "Ġbeslut": 8200,
      "Ġkategorien": 8201,
      "forening": 8202,
      "ĠTomTom": 8203,
      "ĠstrÃ¥lende": 8204,
      "Ġtypisk": 8205,
      "Ġimponerende": 8206,
      "estaurant": 8207,
      "ĠAustralia": 8208,
      "Ġammunisjon": 8209,
      "79": 8210,
      "EE": 8211,
      "Hoved": 8212,
      "IC": 8213,
      "Nett": 8214,
      "Tre": 8215,
      "ci": 8216,
      "tro": 8217,
      "ume": 8218,
      "vask": 8219,
      "vide": 8220,
      "ws": 8221,
      "Ã¥pen": 8222,
      "anken": 8223,
      "Ġmale": 8224,
      "Ġtrav": 8225,
      "arch": 8226,
      "strand": 8227,
      "Ġidet": 8228,
      "reise": 8229,
      "Ġplikt": 8230,
      "Ġavtalen": 8231,
      "ĠpÃ¥ske": 8232,
      "Ġurett": 8233,
      "Ġdei": 8234,
      "ĠHT": 8235,
      "Ã¥rd": 8236,
      "Ġopps": 8237,
      "Ġopptre": 8238,
      "ads": 8239,
      "ĠFamil": 8240,
      "ĠEsp": 8241,
      "Ġspare": 8242,
      "ĠKath": 8243,
      "ĠKunde": 8244,
      "ennene": 8245,
      "eltet": 8246,
      "uden": 8247,
      "Ġ1920": 8248,
      "Ġkunsten": 8249,
      "ĠStol": 8250,
      "ĠStrÃ¸m": 8251,
      "Ġherunder": 8252,
      "ktighet": 8253,
      "yll": 8254,
      "resser": 8255,
      "Ġfremfor": 8256,
      "legget": 8257,
      "ĠfÃ¸rsteklass": 8258,
      "ĠfÃ¸lte": 8259,
      "ettes": 8260,
      "Ġskjul": 8261,
      "Ġbrukerne": 8262,
      "Informasjon": 8263,
      "ĠNorden": 8264,
      "barhet": 8265,
      "Ġkrefter": 8266,
      "Ġfylle": 8267,
      "Ġkirker": 8268,
      "taket": 8269,
      "Ġsvaret": 8270,
      "flu": 8271,
      "ummeret": 8272,
      "ĠProgram": 8273,
      "Ġemb": 8274,
      "Ġforvaltning": 8275,
      "ĠUniversitet": 8276,
      "institusjon": 8277,
      "Ġkvaliteten": 8278,
      "vinsen": 8279,
      "Ġkritisk": 8280,
      "Ġlevde": 8281,
      "Ġskipet": 8282,
      "Ġhumor": 8283,
      "ĠtilhÃ¸rende": 8284,
      "ĠStato": 8285,
      "Ġblanding": 8286,
      "Ġbilletter": 8287,
      "ĠSvein": 8288,
      "Ġenorme": 8289,
      "Ġdiskutere": 8290,
      "ograph": 8291,
      "ospital": 8292,
      "Ġveiledning": 8293,
      "Ġunderstreker": 8294,
      "Ġgrense": 8295,
      "industrien": 8296,
      "Ġmuslimske": 8297,
      "Ġutseende": 8298,
      "Ġorienter": 8299,
      "EM": 8300,
      "Gratulerer": 8301,
      "HÃ¸y": 8302,
      "PP": 8303,
      "bad": 8304,
      "can": 8305,
      "ms": 8306,
      "minner": 8307,
      "midler": 8308,
      "messige": 8309,
      "uch": 8310,
      "ures": 8311,
      "vurder": 8312,
      "Ġfund": 8313,
      "Ġtend": 8314,
      "armer": 8315,
      "Ã¸sten": 8316,
      "Ġforfatt": 8317,
      "Ġgutter": 8318,
      "egen": 8319,
      "rap": 8320,
      "deo": 8321,
      "ison": 8322,
      "ĠSon": 8323,
      "Ġvariere": 8324,
      "ĠAur": 8325,
      "ĠApril": 8326,
      "ĠBry": 8327,
      "Ġoppover": 8328,
      "ĠIrland": 8329,
      "Ġinnspill": 8330,
      "ĠColle": 8331,
      "Ġbeholde": 8332,
      "ĠkjÃ¸rte": 8333,
      "Ġprop": 8334,
      "yrÃ¥": 8335,
      "Ġandel": 8336,
      "Ġcirka": 8337,
      "Ġmyst": 8338,
      "Ġbegiven": 8339,
      "Ġbetra": 8340,
      "Ġkontor": 8341,
      "Ġnettleser": 8342,
      "ĠstÃ¸rst": 8343,
      "ĠnÃ¦rmer": 8344,
      "ĠforsÃ¸kt": 8345,
      "Ġparall": 8346,
      "Ġpresenter": 8347,
      "Ġselges": 8348,
      "Ġfolkene": 8349,
      "jÃ¸ring": 8350,
      "Ġplanter": 8351,
      "ĠDeres": 8352,
      "Ġstyret": 8353,
      "brÃ¸d": 8354,
      "Ġ1991": 8355,
      "Ġoppgitt": 8356,
      "Ġposten": 8357,
      "Ġtraff": 8358,
      "ĠtÃ¸rke": 8359,
      "Ġstilles": 8360,
      "ĠPhu": 8361,
      "alisme": 8362,
      "Ġpasienten": 8363,
      "kampen": 8364,
      "Ġarrangerer": 8365,
      "Ġinviterer": 8366,
      "Gjennom": 8367,
      "ĠGroup": 8368,
      "Ġyrkes": 8369,
      "Ġomgivelser": 8370,
      "Ġopplysningene": 8371,
      "Ġovernattingsstedet": 8372,
      "Ġmaksim": 8373,
      "Ġbekvemmelig": 8374,
      "83": 8375,
      "Fin": 8376,
      "Fran": 8377,
      "Litt": 8378,
      "Ol": 8379,
      "dy": 8380,
      "iatri": 8381,
      "mun": 8382,
      "melse": 8383,
      "sung": 8384,
      "vig": 8385,
      "Ġsene": 8386,
      "Ġsim": 8387,
      "anerne": 8388,
      "Ġmaster": 8389,
      "elatende": 8390,
      "ilgang": 8391,
      "Ġpizza": 8392,
      "skomm": 8393,
      "egger": 8394,
      "debatt": 8395,
      "Ġavde": 8396,
      "Ġavdeling": 8397,
      "esund": 8398,
      "isasjon": 8399,
      "Ġstren": 8400,
      "Ġstift": 8401,
      "ĠSV": 8402,
      "Ġoppskriften": 8403,
      "Ġgjaldt": 8404,
      "ĠFot": 8405,
      "Ġlisens": 8406,
      "ĠKle": 8407,
      "ĠLO": 8408,
      "ĠVe": 8409,
      "Ġkomb": 8410,
      "ĠGaz": 8411,
      "ffekter": 8412,
      "Ġleker": 8413,
      ".....": 8414,
      "engelsk": 8415,
      "Ġklage": 8416,
      "Ġmerk": 8417,
      "aktige": 8418,
      "delsene": 8419,
      "Â»)": 8420,
      "ĠStart": 8421,
      "Ġ37": 8422,
      "Ġherlige": 8423,
      "Ġgrens": 8424,
      "Ġanmel": 8425,
      "legges": 8426,
      "Ġbetrakt": 8427,
      "Ġlyset": 8428,
      "ĠÃ¸nsk": 8429,
      "Ġviktigere": 8430,
      "ĠAngel": 8431,
      "ĠsÃ¸t": 8432,
      "Ġanti": 8433,
      "selskaper": 8434,
      "Ġmusli": 8435,
      "Ġfaktorer": 8436,
      "sjettet": 8437,
      "Ġelev": 8438,
      "Skal": 8439,
      "Ġgjenstander": 8440,
      "virksomhet": 8441,
      "Ġgradvis": 8442,
      "Ġspillerne": 8443,
      "Ġbryllup": 8444,
      "Ã¼r": 8445,
      "ĠServer": 8446,
      "istrikt": 8447,
      "blemet": 8448,
      "Ġflertall": 8449,
      "Ġkomfortable": 8450,
      "ĠNettstedet": 8451,
      "ĠStatens": 8452,
      "Ġforsvant": 8453,
      "mesteren": 8454,
      "Ġgrov": 8455,
      "ĠAlexander": 8456,
      "Ġforesl": 8457,
      "ĠCambridge": 8458,
      ")||": 8459,
      "ION": 8460,
      "Litteratur": 8461,
      "Person": 8462,
      "PUT": 8463,
      "Vest": 8464,
      "hjul": 8465,
      "kle": 8466,
      "val": 8467,
      "Ġhem": 8468,
      "Ġtriv": 8469,
      "Ġbadet": 8470,
      "Ġvakt": 8471,
      "sko": 8472,
      "kkert": 8473,
      "ĠDon": 8474,
      "ĠSil": 8475,
      "Ġskilt": 8476,
      "ĠHos": 8477,
      "ĠHostel": 8478,
      "Ġuts": 8479,
      "ĠMS": 8480,
      "ĠMod": 8481,
      "rust": 8482,
      "usive": 8483,
      "ĠIfÃ¸lge": 8484,
      "Ġinnstillinger": 8485,
      "ĠPr": 8486,
      "iva": 8487,
      "ĠÃ¥rlige": 8488,
      "ĠStra": 8489,
      "Ġdeles": 8490,
      "ops": 8491,
      "rÃ¸v": 8492,
      "Ġtreff": 8493,
      "Ġmilj": 8494,
      "Ġhunder": 8495,
      "reres": 8496,
      "ardin": 8497,
      "Ġvanskelige": 8498,
      "Ġflyplass": 8499,
      "ĠAng": 8500,
      "ĠmÃ¸bler": 8501,
      "Ġfiler": 8502,
      "Ġfrie": 8503,
      "Ġantatt": 8504,
      "Ġkommuner": 8505,
      "Ġteori": 8506,
      "Ġisoler": 8507,
      "regist": 8508,
      "Ġinvest": 8509,
      "Ġavslapp": 8510,
      "Ġvegg": 8511,
      "Ġriktige": 8512,
      "Ġshow": 8513,
      "Ġpassord": 8514,
      "Ġeksped": 8515,
      "ĠtÃ¸rr": 8516,
      "Ġoppdage": 8517,
      "produkter": 8518,
      "Ġvitenskapelige": 8519,
      "Ġkollega": 8520,
      "byrÃ¥": 8521,
      "Ġseminar": 8522,
      "Ġtidsskrift": 8523,
      "Tidligere": 8524,
      "Ġhovedstaden": 8525,
      "ĠService": 8526,
      "ĠAndersen": 8527,
      "Ġintrodus": 8528,
      "Ġhjemmeside": 8529,
      "ĠSovjet": 8530,
      "Ġettermiddag": 8531,
      "ĠRoyal": 8532,
      "fÃ¸dte": 8533,
      "ĠPhuket": 8534,
      "82": 8535,
      "Ann": 8536,
      "CO": 8537,
      "DER": 8538,
      "Skj": 8539,
      "bake": 8540,
      "fa": 8541,
      "frem": 8542,
      "iff": 8543,
      "lÃ¸k": 8544,
      "so": 8545,
      "ts": 8546,
      "Ġille": 8547,
      "Ġsil": 8548,
      "Ġsav": 8549,
      "ani": 8550,
      "Ġmur": 8551,
      "elet": 8552,
      "Ġteste": 8553,
      "Ġball": 8554,
      "Ġbind": 8555,
      "Ġbron": 8556,
      "Ġisen": 8557,
      "Ġkalen": 8558,
      "Ġpen": 8559,
      "legen": 8560,
      "esl": 8561,
      "Ġlete": 8562,
      "lerede": 8563,
      "asp": 8564,
      "Ġstakk": 8565,
      "agte": 8566,
      "ĠHagen": 8567,
      "Ġutstillingen": 8568,
      "Ġoppskrift": 8569,
      "ĠTro": 8570,
      "serer": 8571,
      "avtalen": 8572,
      "ĠGener": 8573,
      "ĠComm": 8574,
      "enny": 8575,
      "Ġkjeller": 8576,
      "Ġprog": 8577,
      "ican": 8578,
      "astisk": 8579,
      "Ġ38": 8580,
      "smÃ¸te": 8581,
      "Ġankl": 8582,
      "Ã¸pt": 8583,
      "Ġsystemer": 8584,
      "play": 8585,
      "Ġtreffer": 8586,
      "Ġ42": 8587,
      "ĠforsÃ¸ke": 8588,
      "ĠhÃ¥nden": 8589,
      "Ġansikt": 8590,
      "ianter": 8591,
      "Ġprester": 8592,
      "seth": 8593,
      "Ġeval": 8594,
      "ĠBern": 8595,
      "ĠÃ¸kning": 8596,
      "Stat": 8597,
      "Ġluks": 8598,
      "Ġdatab": 8599,
      "Ġsamtale": 8600,
      "Ġkorn": 8601,
      "Ġtjenesten": 8602,
      "bank": 8603,
      "Ġsolgte": 8604,
      "Ġgresk": 8605,
      "ĠBarn": 8606,
      "Ġideelt": 8607,
      "Ġutvalgte": 8608,
      "Ġorganisasjonen": 8609,
      "Ġforklare": 8610,
      "Ġforretning": 8611,
      "Ġdokum": 8612,
      "Ġpsykiske": 8613,
      "Ġarrangert": 8614,
      "Ġrapporten": 8615,
      "prisen": 8616,
      "Ġsatel": 8617,
      "Ġhotel": 8618,
      "Ġsalme": 8619,
      "Ġstammer": 8620,
      "fjorden": 8621,
      "motor": 8622,
      "Ġkundene": 8623,
      "Ġerobret": 8624,
      "Ġengasjement": 8625,
      "Ġnavig": 8626,
      "kjennelse": 8627,
      "Ġmatemat": 8628,
      "Ġskaffet": 8629,
      "Best": 8630,
      "HO": 8631,
      "Legg": 8632,
      "cent": 8633,
      "din": 8634,
      "eist": 8635,
      "iop": 8636,
      "journ": 8637,
      "kons": 8638,
      "kysten": 8639,
      "nu": 8640,
      "Ġset": 8641,
      "Ġfat": 8642,
      "Ġtittel": 8643,
      "strukt": 8644,
      "Ġgress": 8645,
      "Ġlatter": 8646,
      "Ġukene": 8647,
      "Ġukjent": 8648,
      "ĠDVD": 8649,
      "entrum": 8650,
      "etting": 8651,
      "ĠNi": 8652,
      "ĠNiger": 8653,
      "ĠIP": 8654,
      "ĠFire": 8655,
      "ĠKim": 8656,
      "akene": 8657,
      "ords": 8658,
      "Ġoverh": 8659,
      "Ġoveralt": 8660,
      "Ġvedtatt": 8661,
      "||-": 8662,
      "Ġdaglige": 8663,
      "ĠundersÃ¸ke": 8664,
      "ĠStrand": 8665,
      "Ġ3166": 8666,
      "ĠnÃ¥dde": 8667,
      "Ġordre": 8668,
      "Ġdelene": 8669,
      "Ġbetal": 8670,
      "Ġsmake": 8671,
      "plom": 8672,
      "Ġsynlig": 8673,
      "appar": 8674,
      "Ġlade": 8675,
      "Ġkors": 8676,
      "Ġ1994": 8677,
      "ĠSecurity": 8678,
      "Ġinstall": 8679,
      "ĠlÃ¸pe": 8680,
      "Ġkompli": 8681,
      "Ġdiagno": 8682,
      "ĠdÃ¸ds": 8683,
      "Ġmodern": 8684,
      "ĠRoad": 8685,
      "Ġfaglig": 8686,
      "Ġanbefale": 8687,
      "Ġtvunget": 8688,
      "base": 8689,
      "Ġimport": 8690,
      "ĠGeorge": 8691,
      "Ġalternative": 8692,
      "Ġbidratt": 8693,
      "riksen": 8694,
      "Ġmyndighetene": 8695,
      "sesongen": 8696,
      "ĠkjÃ¦resten": 8697,
      "Ġdistrib": 8698,
      "Ġmassasje": 8699,
      "Ġvaske": 8700,
      "begyn": 8701,
      "Ġdeltakere": 8702,
      "ĠAsia": 8703,
      "Ġfritidsaktiviteter": 8704,
      "FA": 8705,
      "FÃ¥": 8706,
      "Hver": 8707,
      "Send": 8708,
      "cer": 8709,
      "cke": 8710,
      "fiske": 8711,
      "ipe": 8712,
      "loven": 8713,
      "sord": 8714,
      "ering": 8715,
      "Ġsne": 8716,
      "Ġsans": 8717,
      "Ã¥t": 8718,
      "Ġdru": 8719,
      "Ġfront": 8720,
      "anere": 8721,
      "ortere": 8722,
      "Ġmunnen": 8723,
      "elÃ¸s": 8724,
      "Ġkule": 8725,
      "Ġkylling": 8726,
      "skom": 8727,
      "Ġgolf": 8728,
      "Ġlande": 8729,
      "ids": 8730,
      "asy": 8731,
      "ĠSK": 8732,
      "ĠHill": 8733,
      "Ġomd": 8734,
      "ĠAV": 8735,
      "ĠBir": 8736,
      "Ġviet": 8737,
      "ado": 8738,
      "adrat": 8739,
      "Ġgjem": 8740,
      "ĠER": 8741,
      "ĠinnkjÃ¸p": 8742,
      "okal": 8743,
      "Ġspeil": 8744,
      "Ġspekter": 8745,
      "ikter": 8746,
      "ĠPris": 8747,
      "ista": 8748,
      "ĠCa": 8749,
      "ĠRÃ¸r": 8750,
      "ĠRos": 8751,
      "Ġkonkluder": 8752,
      "ĠUll": 8753,
      "ryt": 8754,
      "Ġlandslag": 8755,
      "format": 8756,
      "Ġbarndom": 8757,
      "ĠEnkelte": 8758,
      "ards": 8759,
      "Ġallmenn": 8760,
      "ĠtiÃ¥r": 8761,
      "Ã¸mt": 8762,
      "Ġordene": 8763,
      "ship": 8764,
      "cts": 8765,
      "Ġeleg": 8766,
      "postadresse": 8767,
      "Ġutvide": 8768,
      "Ġisrael": 8769,
      "ĠlÃ¥ne": 8770,
      "Ġprisene": 8771,
      "Ġkortet": 8772,
      "ĠnÃ¸dt": 8773,
      "ĠRec": 8774,
      "yth": 8775,
      "ÃĺR": 8776,
      "Ġavslutte": 8777,
      "ĠXP": 8778,
      "ĠBeach": 8779,
      "Ġreisen": 8780,
      "kreft": 8781,
      "Ġutdan": 8782,
      "Ġforlot": 8783,
      "Ġsjef": 8784,
      "givning": 8785,
      "Ġarrangementer": 8786,
      "Ġkoste": 8787,
      "Ġdetaljert": 8788,
      "ĠMacintosh": 8789,
      "Ġstopper": 8790,
      "ashington": 8791,
      "ĠhÃ¦rskar": 8792,
      "Ġjournalist": 8793,
      "Ġstranden": 8794,
      "Ġfremtidige": 8795,
      "Ġlesere": 8796,
      "KEA": 8797,
      "Ġmiddelalderen": 8798,
      "ĠCharles": 8799,
      "Ġdronning": 8800,
      "Ġkomplett": 8801,
      "Ġtilsynelatende": 8802,
      "ĠoppnÃ¥d": 8803,
      "ĠJackson": 8804,
      "irektoratet": 8805,
      "ĠhÃ¦rskarenes": 8806,
      "GÃ¥": 8807,
      "Hel": 8808,
      "Red": 8809,
      "Tjenester": 8810,
      "biter": 8811,
      "fol": 8812,
      "sidene": 8813,
      "Ġfinn": 8814,
      "Ġovnen": 8815,
      "Ġmiste": 8816,
      "eliv": 8817,
      "Ġtcp": 8818,
      "arden": 8819,
      "Ã¸tte": 8820,
      "skoler": 8821,
      "onse": 8822,
      "Ġgrev": 8823,
      "ĠerklÃ¦r": 8824,
      "Ġavdel": 8825,
      "ĠlÃ¦ring": 8826,
      "verr": 8827,
      "ĠDoc": 8828,
      "ĠSi": 8829,
      "anden": 8830,
      "ĠHelt": 8831,
      "Ġutal": 8832,
      "ĠutfÃ¸res": 8833,
      "ĠMunch": 8834,
      "ĠrÃ¸r": 8835,
      "ĠTy": 8836,
      "ĠTun": 8837,
      "ĠNT": 8838,
      "Ã¦rne": 8839,
      "ular": 8840,
      "serie": 8841,
      "Ġliber": 8842,
      "ĠKongen": 8843,
      "ĠPass": 8844,
      "ĠLight": 8845,
      "ĠCru": 8846,
      "unnskap": 8847,
      "ĠÃ¥rsaker": 8848,
      "visninger": 8849,
      "ĠStar": 8850,
      "Ġhaha": 8851,
      "holdet": 8852,
      "Ġstorm": 8853,
      "ĠNorwegian": 8854,
      "Ġbegrep": 8855,
      "Ġkvalit": 8856,
      "Ġthey": 8857,
      "ferie": 8858,
      "Ġtakke": 8859,
      "Ġgrunnlaget": 8860,
      "ĠAnton": 8861,
      "Ġfla": 8862,
      "ĠChamp": 8863,
      "Ġinneholde": 8864,
      "ĠMarg": 8865,
      "oca": 8866,
      "ĠNordland": 8867,
      "Ġkald": 8868,
      "Ġkalde": 8869,
      "Ġangst": 8870,
      "Ġfylkes": 8871,
      "Ġholdning": 8872,
      "Ġbygningen": 8873,
      "Ġbygges": 8874,
      "Ġattrakt": 8875,
      "Ġ1948": 8876,
      "kortet": 8877,
      "ĠScient": 8878,
      "marks": 8879,
      "ĠSela": 8880,
      "Ġhoppe": 8881,
      "Ġvitenskapelig": 8882,
      "lisabeth": 8883,
      "Ġdrama": 8884,
      "ĠlÃ¦rere": 8885,
      "ĠpÃ¥virket": 8886,
      "Ġportug": 8887,
      "Ġmidlertidig": 8888,
      "ĠVelg": 8889,
      "ĠSveits": 8890,
      "ĠAgoda": 8891,
      "ĠbÃ¦rekraft": 8892,
      "ĠgrÃ¸nnsaker": 8893,
      "Ġarrangeres": 8894,
      "Ġglobale": 8895,
      "Ġarkitektur": 8896,
      "ĠtÃ¸ff": 8897,
      "nekart": 8898,
      "bevegelsen": 8899,
      "Ġkonkrete": 8900,
      "ĠArbeiderpartiet": 8901,
      "Ġgjenspe": 8902,
      "Internett": 8903,
      "Hvem": 8904,
      "Ġtilpasse": 8905,
      "ĠfÃ¸rsteklasses": 8906,
      "Hans": 8907,
      "Nei": 8908,
      "Ser": 8909,
      "bill": 8910,
      "gaven": 8911,
      "iest": 8912,
      "kalt": 8913,
      "myn": 8914,
      "sats": 8915,
      "ube": 8916,
      "Ġsid": 8917,
      "Ã¥ten": 8918,
      "Ġfigur": 8919,
      "Ġtonn": 8920,
      "Ġbrede": 8921,
      "Ġif": 8922,
      "Ġpent": 8923,
      "edie": 8924,
      "Ġforst": 8925,
      "Ġforstyr": 8926,
      "tein": 8927,
      "Ġgitar": 8928,
      "Ġenheten": 8929,
      "album": 8930,
      "Ġavb": 8931,
      "Ġavtaler": 8932,
      "ĠlÃ¸k": 8933,
      "Ġlook": 8934,
      "Ġubeh": 8935,
      "Ġstjerner": 8936,
      "ago": 8937,
      "risten": 8938,
      "ating": 8939,
      "Ġdestin": 8940,
      "Ġjap": 8941,
      "ĠMu": 8942,
      "ĠMine": 8943,
      "ĠMellom": 8944,
      "ĠoppfÃ¸lg": 8945,
      "Ġrun": 8946,
      "ĠTha": 8947,
      "ĠNye": 8948,
      "hets": 8949,
      "Ġliksom": 8950,
      "ĠPubli": 8951,
      "ivitet": 8952,
      "ĠVÃ¥re": 8953,
      "Ġbein": 8954,
      "Ġbeina": 8955,
      "ĠRett": 8956,
      "iring": 8957,
      "ummen": 8958,
      "obile": 8959,
      "jering": 8960,
      "varsel": 8961,
      "ĠStand": 8962,
      "chn": 8963,
      "Ġmyk": 8964,
      "Ġbegeist": 8965,
      "vetid": 8966,
      "ferdig": 8967,
      "ibil": 8968,
      "ĠbestÃ¥ende": 8969,
      "...]": 8970,
      "Ġypper": 8971,
      "problemer": 8972,
      "ianne": 8973,
      "ineres": 8974,
      "Ġnordisk": 8975,
      "Ġrot": 8976,
      "Ġlivlige": 8977,
      "Ġelement": 8978,
      "Ġadresse": 8979,
      "stillingene": 8980,
      "ookies": 8981,
      "ĠhÃ¥ndtere": 8982,
      "ENE": 8983,
      "ĠspÃ¸rsmÃ¥lene": 8984,
      "Ġmetall": 8985,
      "Ġ1988": 8986,
      "bygget": 8987,
      "ĠRosen": 8988,
      "Ġbryter": 8989,
      "Ġtempel": 8990,
      "Ġstolte": 8991,
      "ĠSchool": 8992,
      "Ġekspert": 8993,
      "Ġfokuserer": 8994,
      "Ġrammer": 8995,
      "Ġbevegelse": 8996,
      "Ġkoke": 8997,
      "Ġsykdommer": 8998,
      "Ġareal": 8999,
      "Ġstoppe": 9000,
      "egÃ¥rden": 9001,
      "sklasse": 9002,
      "Ġbehandle": 9003,
      "Ġpotet": 9004,
      "Ġhypp": 9005,
      "IGON": 9006,
      "Ġeksisterer": 9007,
      "Ġoppstart": 9008,
      "Ã¸gskolen": 9009,
      "krigen": 9010,
      "Ġkontinuer": 9011,
      "Ġintervjuet": 9012,
      "reisende": 9013,
      "Ġdokumentasjon": 9014,
      "skyld": 9015,
      "87": 9016,
      "TER": 9017,
      "batter": 9018,
      "bordet": 9019,
      "dok": 9020,
      "fasiliteter": 9021,
      "ielt": 9022,
      "kul": 9023,
      "las": 9024,
      "obe": 9025,
      "uet": 9026,
      "vit": 9027,
      "ĠfÃ¶r": 9028,
      "Ġmom": 9029,
      "Ġmak": 9030,
      "elin": 9031,
      "Ġhelset": 9032,
      "ilie": 9033,
      "ilsynet": 9034,
      "Ġbiter": 9035,
      "Ġpedagog": 9036,
      "lister": 9037,
      "skogen": 9038,
      "skifte": 9039,
      "Ġforat": 9040,
      "Ġforebygg": 9041,
      "Ġtilsl": 9042,
      "Ġnat": 9043,
      "Ġavanserte": 9044,
      "esel": 9045,
      "verte": 9046,
      "Ġuh": 9047,
      "Ġuro": 9048,
      "ĠSÃ¸k": 9049,
      "ĠSouth": 9050,
      "oline": 9051,
      "Ġskred": 9052,
      "ĠHum": 9053,
      "stekn": 9054,
      "ĠAk": 9055,
      "ĠBal": 9056,
      "Ġoppvar": 9057,
      "ĠNat": 9058,
      "merke": 9059,
      "Ġspa": 9060,
      "Ġspist": 9061,
      "Ġspanske": 9062,
      "ĠKre": 9063,
      "ĠKra": 9064,
      "ĠLie": 9065,
      "ĠsÃ¥pass": 9066,
      "ĠGÃ¥": 9067,
      "ĠCamp": 9068,
      "ĠCÃ¦s": 9069,
      "ĠRing": 9070,
      "beskriv": 9071,
      "Ġblandet": 9072,
      "aterte": 9073,
      "ĠInnt": 9074,
      "iverset": 9075,
      "Ġpreste": 9076,
      "ĠArch": 9077,
      "ĠMarc": 9078,
      "ĠMari": 9079,
      "ĠMars": 9080,
      "ĠMarit": 9081,
      "Ġeksamen": 9082,
      "Ġantagelig": 9083,
      "Ġrop": 9084,
      "Stud": 9085,
      "Ġstyrer": 9086,
      "Ġprosesser": 9087,
      "Ġhvile": 9088,
      "Ãħrets": 9089,
      "ĠlÃ¥n": 9090,
      "Ġinstrum": 9091,
      "Ġbehagelig": 9092,
      "ĠbehÃ¸ver": 9093,
      "ĠRep": 9094,
      "ublikken": 9095,
      "vÃ¦relse": 9096,
      "Ġkjempet": 9097,
      "Ġpasset": 9098,
      "Ġskrivebord": 9099,
      "petanse": 9100,
      "Ġbryst": 9101,
      "ĠrÃ¥dgiver": 9102,
      "Ġgarn": 9103,
      "Ġarrangement": 9104,
      "Ġbeveger": 9105,
      "Ġsykdommen": 9106,
      "Ġtegnes": 9107,
      "Ġklassiske": 9108,
      "Ġmyndighet": 9109,
      "ĠBrun": 9110,
      "programmet": 9111,
      "Ġuniversitetet": 9112,
      "Ġkonstant": 9113,
      "Ġerstattet": 9114,
      "asinet": 9115,
      "Ġtungt": 9116,
      "Ġkrevende": 9117,
      "Ġultra": 9118,
      "Ġbedriften": 9119,
      "spartiet": 9120,
      "Ġbarnehage": 9121,
      "Ġpresset": 9122,
      "ĠiPhone": 9123,
      "Ġinstitusjoner": 9124,
      "Ġforbudt": 9125,
      "skjerm": 9126,
      "ĠAkershus": 9127,
      "ĠEirik": 9128,
      "Ġbistand": 9129,
      "ĠHongkong": 9130,
      "ĠTingo": 9131,
      "Ġytringsfri": 9132,
      "ĠVolvo": 9133,
      "ĠDublin": 9134,
      "Ġutallige": 9135,
      "Kap": 9136,
      "bing": 9137,
      "ites": 9138,
      "kode": 9139,
      "malt": 9140,
      "okt": 9141,
      "tred": 9142,
      "yle": 9143,
      "zen": 9144,
      "Ġil": 9145,
      "Ġsch": 9146,
      "Ġfog": 9147,
      "anmeldelser": 9148,
      "Ġmun": 9149,
      "Ġmask": 9150,
      "Ġmister": 9151,
      "Ġhytte": 9152,
      "Ġhilsen": 9153,
      "aren": 9154,
      "steg": 9155,
      "stant": 9156,
      "Ġastron": 9157,
      "Ġvende": 9158,
      "Ġkose": 9159,
      "Ġpers": 9160,
      "skrevet": 9161,
      "Ġforg": 9162,
      "Ġforelig": 9163,
      "Ġforlag": 9164,
      "kkelige": 9165,
      "ĠnÃ¦re": 9166,
      "Ã¸rk": 9167,
      "Ã¸rsmÃ¥let": 9168,
      "Ġuk": 9169,
      "Ġstk": 9170,
      "ĠDream": 9171,
      "ĠSo": 9172,
      "ĠSist": 9173,
      "ĠSenter": 9174,
      "key": 9175,
      "itÃ©": 9176,
      "ituttet": 9177,
      "ĠBÃ¸r": 9178,
      "ĠBri": 9179,
      "ĠBus": 9180,
      "ĠBad": 9181,
      "ĠBlir": 9182,
      "ĠTran": 9183,
      "ĠNok": 9184,
      "gebyr": 9185,
      "ĠKommun": 9186,
      "ĠPu": 9187,
      "ĠPol": 9188,
      "sendt": 9189,
      "ĠLo": 9190,
      "ĠRÃ¸": 9191,
      "kers": 9192,
      "Ġ1950": 9193,
      "Ġblokk": 9194,
      "visningen": 9195,
      "Ġarrest": 9196,
      "tenberg": 9197,
      "kjeden": 9198,
      "kjenne": 9199,
      "ĠAlbert": 9200,
      "iety": 9201,
      "Ġsjansen": 9202,
      "ĠnÃ¦rhet": 9203,
      "problem": 9204,
      "sjonen": 9205,
      "esterett": 9206,
      "Ġordin": 9207,
      "Ġ95": 9208,
      "Ġtekster": 9209,
      "Ġartister": 9210,
      "Ġsamtykke": 9211,
      "Ġ120": 9212,
      "haug": 9213,
      "Ġbokstav": 9214,
      "bransjen": 9215,
      "ighetene": 9216,
      "ĠangÃ¥ende": 9217,
      "Ġjordens": 9218,
      "Ġkarbon": 9219,
      "All": 9220,
      "Ġavslut": 9221,
      "âĢ¦]": 9222,
      "Ġopplevde": 9223,
      "Ġoppleves": 9224,
      "Ġabs": 9225,
      "Ġlengst": 9226,
      "Ġkongens": 9227,
      "Ġmottar": 9228,
      "Ġspilleren": 9229,
      "Ġvideoen": 9230,
      "Ġ1945": 9231,
      "ĠÃ¸vre": 9232,
      "ĠBox": 9233,
      "ĠPhil": 9234,
      "Ġmeldinger": 9235,
      "butikken": 9236,
      "Ġfordeler": 9237,
      "egÃ¥rd": 9238,
      "Ġhyggelige": 9239,
      "Ġfattige": 9240,
      "Ġdrepte": 9241,
      "Ġbekreftet": 9242,
      "ĠsjÃ¸en": 9243,
      "Ġbeslutning": 9244,
      "Ġkonkurransen": 9245,
      "Ġstuderte": 9246,
      "behÃ¸r": 9247,
      "Ġnederst": 9248,
      "Ġforutsetning": 9249,
      "Ġtilknyttet": 9250,
      "Ġenorm": 9251,
      "ĠGreen": 9252,
      "ĠnÃ¸kkel": 9253,
      "Ġradik": 9254,
      "ĠtÃ¥ler": 9255,
      "ĠForsvaret": 9256,
      "Historie": 9257,
      "Ġsofaen": 9258,
      "Ġfjernsyn": 9259,
      "DF": 9260,
      "DN": 9261,
      "OC": 9262,
      "Per": 9263,
      "Syn": 9264,
      "Telefon": 9265,
      "bÃ¸kene": 9266,
      "ther": 9267,
      "Ġhast": 9268,
      "Ġhekt": 9269,
      "Ġbele": 9270,
      "skol": 9271,
      "egler": 9272,
      "igger": 9273,
      "isser": 9274,
      "very": 9275,
      "Ġstry": 9276,
      "Ġstrukt": 9277,
      "ĠSjekk": 9278,
      "Ġinf": 9279,
      "Ġjf": 9280,
      "row": 9281,
      "rut": 9282,
      "eremon": 9283,
      "ĠAsp": 9284,
      "ĠBest": 9285,
      "Ġopptak": 9286,
      "Ġdukke": 9287,
      "Ġinnred": 9288,
      "ĠKa": 9289,
      "ĠKjell": 9290,
      "ĠKirk": 9291,
      "avisen": 9292,
      "senal": 9293,
      "Ġsamsvar": 9294,
      "ĠGri": 9295,
      "ĠJust": 9296,
      "ĠoverfÃ¸rt": 9297,
      "ĠCor": 9298,
      "ĠChe": 9299,
      "spunkter": 9300,
      "Ġminer": 9301,
      "ĠÃ¥rsaken": 9302,
      "Ġtidlige": 9303,
      "smet": 9304,
      "ople": 9305,
      "Ġbegrunn": 9306,
      "ĠInge": 9307,
      "Ġsmaker": 9308,
      "ĠhÃ¸yhastighet": 9309,
      "Ġnettsiden": 9310,
      "ught": 9311,
      "Ġforskj": 9312,
      "Ġforbundet": 9313,
      "komne": 9314,
      "prosjektet": 9315,
      "Ġinneholdt": 9316,
      "Ġimper": 9317,
      "Ġstudio": 9318,
      "Ġledelsen": 9319,
      "Ġfoto": 9320,
      "ubben": 9321,
      "kvens": 9322,
      "filter": 9323,
      "Ġstykker": 9324,
      "Ġnevner": 9325,
      "kommun": 9326,
      "ĠGeir": 9327,
      "Ġbane": 9328,
      "Ġforleng": 9329,
      "ĠsÃ¸kte": 9330,
      "Ġmulighetene": 9331,
      "Ġstoffer": 9332,
      "Ġungdoms": 9333,
      "Ġlogge": 9334,
      "ĠSystem": 9335,
      "Ġstillingen": 9336,
      "Sammen": 9337,
      "ĠAntarkt": 9338,
      "Ġbekrefter": 9339,
      "Ġoverrasket": 9340,
      "Ġrettferdig": 9341,
      "ĠAlexand": 9342,
      "Ġbeskrive": 9343,
      "Ġdemonst": 9344,
      "utdanning": 9345,
      "Ġhendene": 9346,
      "Ġoppfordrer": 9347,
      "ĠLuftforsvar": 9348,
      "Ġjurid": 9349,
      "Ġfingrene": 9350,
      "kvalitet": 9351,
      "Ġinnkvartering": 9352,
      "ĠStatoil": 9353,
      "?)": 9354,
      "FOR": 9355,
      "fekt": 9356,
      "hr": 9357,
      "hot": 9358,
      "jar": 9359,
      "look": 9360,
      "museet": 9361,
      "misbruk": 9362,
      "rine": 9363,
      "Ġriv": 9364,
      "ĠdrÃ¸": 9365,
      "Ġdanse": 9366,
      "ĠdrÃ¸y": 9367,
      "Ġfalle": 9368,
      "insen": 9369,
      "Ġmill": 9370,
      "ela": 9371,
      "elte": 9372,
      "Ġho": 9373,
      "Ġhag": 9374,
      "Ġtvers": 9375,
      "stjenester": 9376,
      "Ġbringe": 9377,
      "Ġklem": 9378,
      "omet": 9379,
      "skene": 9380,
      "Ġgev": 9381,
      "Ġendel": 9382,
      "Ġavhenger": 9383,
      "ĠSett": 9384,
      "ĠSend": 9385,
      "Ġinfra": 9386,
      "Ġutarbeidet": 9387,
      "ĠMolde": 9388,
      "ota": 9389,
      "ĠBa": 9390,
      "Ġkant": 9391,
      "ĠTab": 9392,
      "ĠNav": 9393,
      "ĠFant": 9394,
      "Ġsper": 9395,
      "ĠJob": 9396,
      "ĠOF": 9397,
      "ĠCast": 9398,
      "ogsÃ¥": 9399,
      "ĠRam": 9400,
[...]
